[PAD]
[UNK]
[BOS]
!
"
#
$
%
&
'
(
)
*
+
,
-
.
/
0
1
2
3
4
5
6
7
8
9
:
;
<
=
>
?
@
A
B
C
D
E
F
G
H
I
J
K
L
M
N
O
P
Q
R
S
T
U
V
W
X
Y
Z
[
\
]
^
_
`
a
b
c
d
e
f
g
h
i
j
k
l
m
n
o
p
q
r
s
t
u
v
w
x
y
z
{
|
}
~
¡
¢
£
¥
§
©
«
®
°
±
·
»
¿
Æ
×
Ø
Þ
ß
æ
ð
ø
þ
Đ
đ
Ħ
ħ
ı
Ł
ł
ŋ
Œ
œ
Ə
ƒ
ǝ
ɔ
ə
ɛ
ɣ
ɪ
ʀ
ʃ
ʔ
ʻ
ʼ
ʾ
ʿ
ˈ
ː
̀
́
̂
̃
̄
̆
̇
̈
̉
̊
̋
̌
̓
̔
̛
̣
̦
̧
̨
̮
̱
̲
̸
͂
Α
Β
Γ
Δ
Ε
Ζ
Η
Θ
Ι
Κ
Λ
Μ
Ν
Ο
Π
Ρ
Σ
Τ
Υ
Φ
Χ
Ψ
Ω
α
β
γ
δ
ε
ζ
η
θ
ι
κ
λ
μ
ν
ξ
ο
π
ρ
ς
σ
τ
υ
φ
χ
ψ
ω
І
А
Б
В
Г
Д
Е
Ж
З
И
К
Л
М
Н
О
П
Р
С
Т
У
Ф
Х
Ц
Ч
Ш
Э
Ю
Я
а
б
в
г
д
е
ж
з
и
к
л
м
н
о
п
р
с
т
у
ф
х
ц
ч
ш
щ
ъ
ы
ь
э
ю
я
і
ј
ћ
Ա
Հ
ա
ե
ի
կ
մ
յ
ն
ո
ս
տ
ր
ւ
ְ
ִ
ַ
ָ
ּ
א
ב
ג
ד
ה
ו
ז
ח
ט
י
כ
ל
ם
מ
ן
נ
ס
ע
פ
צ
ק
ר
ש
ת
،
ا
ب
ة
ت
ث
ج
ح
خ
د
ذ
ر
ز
س
ش
ص
ض
ط
ع
غ
ف
ق
ك
ل
م
ن
ه
و
ى
ي
َ
ُ
ِ
ّ
ْ
ٓ
ٔ
ٕ
پ
چ
ک
گ
ہ
ی
ं
अ
आ
क
ख
ग
च
ज
ट
ड
ण
त
थ
द
ध
न
प
ब
भ
म
य
र
ल
व
श
ष
स
ह
ा
ि
ी
ु
ू
े
ै
ो
्
।
ক
ত
দ
ন
প
ব
ম
য
র
ল
স
়
া
ি
ী
ু
ে
্
க
ச
ட
ண
த
ந
ன
ப
ம
ய
ர
ற
ல
ள
வ
ா
ி
ு
ெ
ே
ை
்
ം
ക
ത
ന
പ
മ
യ
ര
ാ
ി
ു
്
ක
න
ම
ය
ර
ල
ව
්
ා
ි
ු
ෙ
ก
ข
ค
ง
จ
ช
ด
ต
ท
ธ
น
บ
ป
พ
ม
ย
ร
ล
ว
ศ
ส
ห
อ
ะ
ั
า
ิ
ี
ื
ุ
ู
เ
แ
โ
ไ
่
้
์
ํ
་
ა
ბ
ე
ვ
თ
ი
ლ
მ
ნ
ო
რ
ს
უ
ᄀ
ᄁ
ᄂ
ᄃ
ᄅ
ᄆ
ᄇ
ᄉ
ᄊ
ᄋ
ᄌ
ᄎ
ᄏ
ᄐ
ᄑ
ᄒ
ᅡ
ᅢ
ᅣ
ᅥ
ᅦ
ᅧ
ᅨ
ᅩ
ᅪ
ᅬ
ᅭ
ᅮ
ᅯ
ᅲ
ᅳ
ᅴ
ᅵ
ᆨ
ᆫ
ᆯ
ᆷ
ᆸ
ᆺ
ᆼ
‐
–
—
―
‘
’
‚
“
”
„
†
‡
•
′
⁄
₤
€
₱
₹
←
↑
→
↔
⇒
∈
−
∗
∞
≈
≡
≤
≥
⋅
─
│
■
●
★
☆
♠
♭
⟨
⟩
、
。
《
》
「
」
『
』
あ
い
う
え
お
か
き
く
け
こ
さ
し
す
た
ち
っ
つ
て
と
な
に
ぬ
の
は
ひ
ふ
へ
ま
み
も
よ
ら
り
る
れ
を
ん
゙
゚
ア
ィ
イ
ウ
エ
オ
カ
キ
ク
ケ
コ
サ
シ
ス
セ
ソ
タ
チ
ッ
ツ
テ
ト
ナ
ニ
ネ
ノ
ハ
ヒ
フ
ヘ
ホ
マ
ミ
ム
メ
モ
ャ
ュ
ラ
リ
ル
レ
ロ
ン
・
ー
一
丁
七
万
三
上
下
不
世
东
中
主
之
九
乡
事
二
五
井
京
人
仁
代
会
何
作
你
保
信
元
光
全
八
公
六
兵
典
内
出
分
利
前
劉
力
加
化
北
区
十
千
华
南
博
原
县
双
口
古
台
史
司
合
吉
同
名
后
君
周
和
唐
四
国
國
園
土
在
地
城
堂
士
夏
外
多
夜
大
天
太
夫
头
奇
女
好
子
字
学
學
守
安
宗
官
定
宮
家
宿
富
寨
寺
將
小
少
山
島
川
州
工
市
師
平
年
庄
店
建
式
张
張
德
心
志
忠
思
情
愛
成
我
戦
所
手
扌
政
教
数
文
新
方
族
日
昌
明
星
春
是
時
曲
書
最
會
月
有
朝
木
本
朱
李
村
来
東
松
林
校
桥
梁
楊
樂
歌
正
武
氏
民
水
氵
氷
永
江
沙
河
治
泉
法
波
洞
津
派
流
海
清
港
湖
源
溪
火
無
版
牛
物
特
玉
王
理
生
田
男
界
白
百
的
皇
目
相
真
知
石
研
社
神
福
科
究
空
立
站
章
第
美
義
老
者
育
胡
自
良
艹
花
英
華
藤
行
街
西
親
解
言
記
語
语
谷
路
車
軍
通
道
郎
郡
部
都
里
重
野
金
镇
長
长
門
阳
阿
陈
限
院
陳
陽
雄
集
青
音
風
香
馬
马
高
黃
黄
龍
龙
ꞌ
the
of
and
in
to
was
Category
The
is
for
##s
as
on
by
with
from
that
at
his
In
an
he
were
are
also
which
it
He
or
be
has
had
first
##a
##e
References
It
their
who
one
not
its
but
her
American
have
two
##ing
this
##i
New
been
##n
after
##d
##o
United
they
other
time
people
##y
##ed
into
##t
University
links
External
##er
all
##r
she
when
more
This
years
up
born
only
over
would
On
during
players
year
States
where
new
##ly
de
between
##l
about
him
three
used
out
can
known
made
National
County
century
later
World
such
most
then
season
film
part
under
than
became
team
including
She
there
School
being
##es
John
series
some
well
10
through
second
York
South
British
many
against
2010
before
while
them
After
##m
album
May
name
family
September
no
both
until
October
work
March
2008
2011
births
##us
school
War
English
based
January
See
number
align
2009
released
state
##u
played
2012
June
2007
area
may
2006
City
##on
July
##h
August
April
League
called
##k
November
State
000
December
will
game
four
As
2013
2014
won
city
12
right
life
##al
North
films
several
same
2015
football
early
former
History
February
They
music
since
People
##an
His
left
these
use
2016
following
found
career
St
group
2005
French
18
place
15
20
so
11
high
located
##ia
now
German
named
##man
began
member
There
established
end
##g
College
At
##en
each
##2
2004
held
government
London
population
##1
District
For
2017
2000
built
day
International
any
song
company
took
##in
television
members
II
16
home
Living
14
West
back
system
single
set
However
band
30
age
13
around
did
died
games
##ers
published
could
received
served
like
##3
station
House
women
##is
public
town
2003
local
2001
long
species
history
along
2002
world
village
line
25
because
five
player
include
style
off
within
All
17
Cup
large
small
##A
2018
km
List
due
show
##4
California
During
##le
building
England
class
final
said
Association
death
third
own
Australia
##5
One
##0
William
River
24
last
children
included
if
described
very
national
club
##z
1999
service
##6
main
district
##ra
General
No
son
##te
##7
those
still
##c
India
21
play
major
another
When
near
19
##ic
deaths
France
James
Australian
men
record
book
##p
##na
often
High
form
##8
language
George
Party
original
center
1998
side
Park
produced
East
country
male
bgcolor
Indian
best
moved
led
different
written
San
Award
Canada
north
22
million
Royal
President
##9
law
US
##C
Army
old
##th
down
Church
##S
America
father
King
water
order
European
title
site
south
23
late
Canadian
top
again
100
David
war
1996
election
non
what
much
1997
created
##ta
community
First
given
present
Music
role
just
version
##ch
make
six
period
house
support
Division
id
do
started
Council
went
came
power
##la
##ton
##ne
way
Street
video
Germany
married
become
28
international
using
26
among
From
production
development
Club
political
general
short
1995
students
##ie
even
Best
These
various
27
##um
Air
level
1992
works
1994
military
next
having
Robert
##ry
total
Japanese
TV
round
living
head
announced
field
songs
Japan
Washington
Union
land
services
albums
##b
Group
By
1993
however
##x
worked
story
take
20th
per
joined
##ist
Italian
without
Championship
website
##da
opened
1991
returned
China
##rs
wrote
events
founded
Russian
UK
1990
Company
Paul
Thomas
times
29
Charles
few
With
east
Football
west
point
church
position
Records
##or
An
##ar
run
##ism
Kingdom
region
recorded
Year
program
full
##re
Central
1988
professional
Society
##ian
Other
groups
Europe
##́
track
lead
Department
elected
Road
half
##ma
party
lost
According
teams
Women
Michael
term
continued
Hall
Center
areas
co
official
days
directed
1989
education
Island
wife
completed
win
together
La
considered
art
Institute
Art
director
Western
re
##ity
developed
##el
##ka
African
appeared
footballers
making
business
Court
control
com
man
Press
every
Awards
research
Museum
50
event
important
release
schools
1987
character
match
live
Republic
Summer
points
case
Texas
Olympics
Spanish
##ation
##ion
31
formed
Academy
playing
Roman
popular
##land
Chinese
debut
office
further
league
similar
design
others
appointed
1986
result
You
signed
example
Great
list
himself
working
although
episode
##ment
##ley
places
While
race
Peter
1984
average
available
##v
alumni
Early
addition
Africa
Henry
##E
Ireland
##T
free
see
white
project
1985
Some
White
To
Minister
common
Games
1980
Act
body
Catholic
Education
buildings
radio
though
stations
information
##ies
social
Film
##de
Zealand
daughter
female
data
##M
Life
Richard
performed
never
##P
40
across
sold
current
young
stage
1983
mother
Black
aircraft
away
Grand
how
1982
Paris
originally
performance
you
should
##ng
Red
Order
features
Saint
air
open
Lake
companies
killed
taken
Christian
Historic
currently
##ting
largest
includes
Virginia
great
##L
designed
##R
##ville
does
Los
coach
once
modern
Notes
1979
##ck
construction
Chicago
must
less
Smith
##ted
##ri
type
brother
black
books
president
1981
##os
##se
months
process
road
1st
##D
Government
followed
gave
Olympic
we
featured
seen
help
Two
1972
special
finished
##B
Force
##ur
Pennsylvania
forces
1976
##son
##able
##ge
##ter
listed
return
Mary
Although
reported
shows
1978
Dr
seven
Railway
Florida
related
Province
rock
training
Her
##ts
##ey
##as
Mexico
human
Navy
##F
Soviet
usually
throughout
study
Italy
good
1974
##to
##tion
##ya
refer
##ce
central
families
Since
awarded
1975
##ki
leading
1970
range
artists
text
Arts
1977
Official
remained
winning
singer
1968
post
Its
introduced
Irish
low
##st
Day
Second
eventually
1971
##f
either
guitar
able
establishments
Love
politician
Wales
1973
##I
above
eight
1945
##ine
get
19th
upon
##ro
writer
countries
involved
Festival
Science
author
novel
##ness
sent
Northern
college
Man
##nt
units
added
##N
artist
rights
Service
##ha
##ive
size
Most
close
vocals
Sir
action
private
Championships
replaced
car
1969
provided
##w
##am
competition
Public
attack
basketball
Greek
writers
model
background
states
Angeles
previous
least
##ll
police
scored
fourth
degree
Bay
go
fire
court
ship
birth
characters
light
Hill
1967
change
results
##G
Committee
Mount
Joseph
Carolina
owned
##less
1964
media
Radio
Series
placed
via
front
person
Martin
Law
whose
Register
Films
space
provide
##ling
stated
reached
Career
al
1965
campaign
la
Star
rather
Russia
##ns
1966
section
##ni
Major
parts
census
actor
##et
Louis
Empire
##va
plays
1960
systems
success
##O
2nd
ground
Spain
decided
Places
producer
goal
My
reading
##men
Research
If
Team
Jewish
seasons
successful
active
almost
railway
Green
below
previously
Board
edition
leader
put
start
##U
##ke
instead
##ble
saw
possible
industry
force
##ga
Dutch
Scottish
Battle
movement
river
brought
##ty
outside
ten
Old
studio
week
health
island
behind
culture
magazine
interest
defeated
attended
lived
organization
##li
approximately
northern
southern
contract
singles
21st
##ca
tournament
mid
Parliament
500
Ohio
network
capital
##V
collection
hit
Southern
ever
especially
date
Chief
Edward
science
sometimes
primary
musical
Michigan
Members
FC
writing
Times
Asian
programs
Big
Mark
Pacific
Lord
division
##field
structure
changed
Mr
independent
Valley
1963
Town
runs
night
base
market
value
Later
little
too
itself
##wood
1944
Lee
Brown
beginning
Al
Civil
gold
##co
1962
Queen
III
county
operations
taking
launched
hand
##ous
##no
highest
running
##ner
board
##ized
Prince
real
seat
self
regular
army
closed
Men
##do
##line
whom
allowed
Director
soon
##ko
Assembly
required
Poland
significant
Scotland
student
represented
sports
1961
##der
Columbia
That
length
traditional
means
Following
ended
1942
contains
higher
generally
Jersey
studies
summer
Illinois
future
property
money
issues
western
missing
strong
goals
##ham
far
Jones
Congress
child
tour
Military
towards
come
lower
Democratic
shot
footballer
Britain
find
##age
Many
1959
wide
200
according
##ate
noted
names
spent
award
income
Boston
1956
Young
route
1948
Eastern
Polish
additional
Sports
##K
Further
1958
ships
1950
Massachusetts
1943
Time
appearance
course
thus
1940
45
engine
drama
1939
Asia
location
uses
woman
associated
Georgia
older
practice
met
individual
structures
municipality
issue
1946
Line
##ba
earlier
department
1941
unit
genus
food
##tor
et
activities
opening
1957
60
1952
natural
manager
love
cover
Theatre
Television
management
complete
battle
standard
##ti
matches
Conference
entered
access
past
commercial
operated
loss
1955
Little
feature
##io
famous
move
trade
We
##tes
35
Francisco
Me
plant
religious
Commission
Williams
retired
terms
numerous
elections
Alexander
officer
##it
Jack
65
Library
better
Cross
fact
1947
Bill
Governor
annual
Don
tracks
personal
energy
month
score
Office
Tour
Final
changes
##ler
ran
already
sea
Johnson
Centre
staff
actors
lines
rest
eastern
News
economic
##́n
Of
1954
increased
rate
1953
studied
Frank
Development
limited
caused
God
1949
selected
Track
entire
##berg
Station
El
##ization
theory
Blue
cases
takes
today
Bank
going
Township
report
thought
clubs
centre
Book
husband
Latin
medical
##ve
But
chief
decision
appears
news
mostly
Israel
Jean
word
give
##ina
park
becoming
##by
communities
##id
technology
particularly
recording
Oxford
Secretary
shown
hours
Tom
1951
red
3rd
victory
majority
1980s
create
Rock
serving
Islands
sister
Three
32
Victoria
Foundation
senior
movie
material
Swedish
remains
##ger
forced
Family
Biography
Their
fiction
room
Top
Scott
BBC
Kong
Sea
federal
passed
nine
plan
status
legal
Under
relationship
particular
##way
bass
speed
featuring
complex
Health
supported
www
university
Hong
Middle
CD
source
referred
friend
initially
cast
Corps
descent
##sa
Jr
Creek
Joe
1936
##ful
policy
evidence
anti
##lin
Super
civil
minutes
championship
longer
##tic
houses
historical
Police
certain
cost
http
article
always
comedy
Open
turn
Home
1918
middle
Co
USA
Route
need
##X
Special
1970s
##at
composed
ice
overall
forms
raised
hockey
presented
officers
Populated
cities
larger
provides
Earth
themselves
claimed
##j
surface
increase
winner
specific
politicians
1990s
weeks
##est
Prime
operation
1938
meeting
variety
##den
subject
editor
##lo
square
regional
effect
subsequently
Sydney
##ists
##ja
got
leaving
failed
##ee
financial
records
##W
Professor
##ford
Le
Ontario
##H
competed
Mike
page
Berlin
##il
Korean
my
organizations
medal
believed
offered
multiple
Gallery
##les
Coast
parents
mainly
helped
awards
1937
Republican
Korea
von
Fort
actress
Brazil
appearances
Social
consists
native
border
episodes
Game
color
##go
individuals
command
Books
Another
fight
turned
acquired
troops
act
recent
Song
earned
meaning
Live
##ard
Despite
##ated
founder
union
sound
carried
remaining
Airport
separate
done
Medal
products
Senate
deal
1935
key
Also
Journal
online
baseball
Post
train
E9E9E9
attempt
makes
broadcast
host
De
Justice
Toronto
1920
problems
newspaper
Media
Wisconsin
society
Cambridge
vote
1930
formerly
##hi
80
care
double
00
response
Iran
Technology
1960s
minor
king
Philadelphia
foreign
review
experience
professor
here
proposed
our
finally
##ial
##ite
cultural
face
Songs
Prize
##ping
starting
musicians
1919
stories
Minnesota
marriage
conditions
prior
province
covered
##ir
listing
Hospital
Show
Pakistan
des
heavy
responsible
Long
nearly
voice
##me
Santa
influence
##lla
view
words
star
90
issued
Baseball
Federal
software
Both
test
faculty
Regiment
cross
Nations
Peak
computer
Duke
Jackson
Chris
might
parties
latter
fifth
serve
nature
1914
architecture
constructed
Business
distance
pre
bridge
discovered
lives
races
Netherlands
cause
##well
numbers
Personal
##cy
Community
enough
despite
Night
elements
##rd
##za
1929
extended
personnel
graduated
1933
##ov
function
allow
era
residents
##ier
Field
oil
nearby
1928
Steve
plans
Bishop
Indiana
33
##un
Avenue
fefefe
direct
##ally
##wa
##ide
label
managed
friends
ancient
Wilson
leave
Arthur
##ius
44
whole
promoted
whether
##tt
org
Ministry
1934
soldiers
levels
1917
rugby
Gold
arrived
call
channel
mission
##ure
directly
projects
told
asked
Corporation
Elizabeth
70
##ium
renamed
##hip
Sweden
Supreme
appear
primarily
1932
##di
##ary
candidate
Missouri
##ant
pp
households
Bob
Captain
Norwegian
saying
security
languages
wanted
transferred
4th
revealed
Daniel
Taylor
36
Jim
1924
BC
administrative
coast
Inc
del
Mexican
Video
likely
fall
cut
sources
Lady
winners
##town
executive
##mi
literature
leaders
1931
1922
Sun
highly
academic
wing
lies
Andrew
Golden
Atlantic
##house
Notable
And
1927
becomes
females
youth
Medical
piano
Rome
Premier
quality
effects
dedicated
rules
Mountain
designated
silver
idea
notable
median
Kansas
produce
council
##burg
##ot
34
percent
officially
##que
scene
Country
assistant
rule
destroyed
operating
Project
##nd
miles
composer
yet
stars
districts
Works
Sportspeople
Network
unknown
1912
conducted
continue
##ji
Studies
Oregon
##sh
basis
1921
comes
1925
Region
growth
prominent
titled
historic
1926
capacity
paper
64
articles
settlement
me
positive
mixed
inside
38
crew
hosted
smaller
workers
chart
commonly
divided
lack
Winter
Round
ordered
metal
novels
##ria
types
System
quickly
removed
Francis
Tennessee
follows
owner
hospital
parish
Van
ability
Davis
1923
housing
Area
Junior
participated
grew
Highway
moving
administration
##ze
dance
Before
Four
towns
equipment
##ps
facilities
Political
##ky
treatment
Norway
Each
solo
probably
##ah
Colorado
##per
Harry
intended
FM
Power
activity
note
flight
physical
d6d6d6
defeat
Bridge
Born
cars
du
Maria
Stephen
models
direction
Bibliography
Like
18th
except
institutions
##ff
Representatives
format
stop
1910
plants
captured
bank
Death
giving
Tony
sites
Class
code
1915
estate
immediately
recently
##ish
potential
charge
mm
poet
organized
forward
purchased
1916
planned
starring
singers
Place
relations
product
van
needed
association
##ries
Stadium
poor
pressure
meet
offers
job
What
table
Turkey
floor
figure
initial
letter
method
heart
##ny
serves
teacher
champion
museum
Philippines
Sciences
##ning
build
75
alongside
Maryland
##led
join
##ad
Season
pass
Lewis
classical
typically
actually
efforts
Geography
pay
der
focus
titles
pop
Member
ranked
concept
Land
keep
conference
Sri
firm
vs
amount
##ls
problem
digital
assigned
analysis
campus
2019
attention
Jews
stone
leaves
widely
adopted
upper
acting
1900
approach
reach
Port
Beach
Main
web
purpose
respectively
roles
Kentucky
37
##sen
drums
Arizona
mentioned
nominated
Socorro
Miss
Master
Head
interview
1913
Anderson
hard
etc
Foreign
300
fellow
Management
documentary
Engineering
Sources
en
arts
true
transport
Over
##ding
##ber
gained
##pe
begins
versions
scale
positions
Castle
image
yards
therefore
declared
combined
rural
##pur
LINEAR
gun
hold
branch
Czech
accepted
Iowa
contemporary
density
profile
Human
Moscow
alone
prison
##ura
votes
account
##ent
gas
42
trial
street
travel
mountain
Emperor
5th
feet
largely
##nce
coming
secondary
green
recognized
Walter
distribution
mass
territory
Free
##Y
1908
educated
1911
Federation
Forest
Is
Portuguese
Queensland
##idae
engineer
Kitt
clear
engineering
Memorial
Brian
estimated
basic
Simon
agreed
occurred
content
Channel
difficult
says
##be
Austria
1950s
##ell
Turkish
platform
cell
semi
Design
Fox
compared
camp
remain
Brazilian
More
minister
Third
providing
Spacewatch
agreement
Christmas
##han
Buildings
taught
dead
Squadron
Earl
leadership
theatre
suffered
##tte
presence
tax
##ron
reviews
Manchester
gives
performances
disease
twice
Magazine
politics
continues
48
Up
##dy
knowledge
Rugby
attacks
39
press
Melbourne
##ung
scoring
reduced
400
critical
Services
crime
Former
##ut
fell
41
##ea
Vietnam
medalists
##ul
Results
##au
Out
Louisiana
identified
expected
Fame
Albert
##ay
seats
Modern
defined
growing
##chi
sex
##out
Cast
resulted
expanded
journalist
spread
greater
Lemmon
resulting
Band
##ss
damage
##ram
offer
tells
twenty
know
Today
paid
Light
di
painting
Ltd
cannot
##pa
finals
Entertainment
Children
villages
share
Production
Because
blue
fish
Senior
festival
Miller
##̄
receive
Greece
kept
library
creation
unique
Sunday
musician
cells
##ging
Swiss
hour
Internet
store
situated
electric
tree
classes
Your
allows
##mo
##ak
Vice
newly
surrounding
##rt
racing
Ben
Commonwealth
##mann
##ring
About
cancer
minute
reference
Alabama
Israeli
concert
males
##nes
Billboard
##don
Liberal
granted
master
Review
officials
traffic
Cape
theme
55
split
murder
existing
simply
connected
bronze
nation
##bury
sales
##ds
draw
sport
Mountains
52
Executive
Switzerland
figures
big
NFL
Background
Howard
develop
Egypt
km2
claims
buried
things
47
Among
inspired
Singles
Holy
volume
goes
Americans
vehicles
Lieutenant
Danish
grade
##ana
younger
##dae
losing
##ors
regions
Infantry
17th
Hungarian
formation
chairman
couple
Oklahoma
Point
break
entry
applied
Hamilton
felt
showed
##ica
Professional
blood
tried
piece
facility
Hot
oldest
IV
##mer
completely
fully
Houston
##bo
Information
urban
generation
aired
Historical
materials
scientific
Sam
trains
Anthony
Regional
programming
##worth
quarter
dark
Quebec
fighting
painter
Ford
Census
containing
notes
finish
ed
Singapore
obtained
environment
Basketball
temple
expatriate
##ol
Affairs
49
##tus
mile
reports
Anne
suggested
Labour
arms
metres
Water
Fire
Space
##che
##J
injury
Revolution
household
effort
machine
governor
teaching
Patrick
opera
animals
something
Security
industrial
drive
1906
allowing
wall
impact
DVD
confirmed
tower
Between
Vol
succeeded
1905
##ped
billion
##head
achieved
Argentina
##ance
advanced
Marine
Naval
Building
##ned
Schools
headquarters
Detroit
lyrics
Khan
Plot
girl
##lia
Officer
committee
vehicle
Only
1909
visit
1907
wins
guest
bus
sides
captain
publication
origin
##des
holds
##ai
authorities
situation
##ice
sixth
Harvard
Native
surname
entitled
Chairman
spring
yard
##gan
43
Survey
chosen
sets
commander
Connecticut
occupied
coaches
marked
commissioned
sort
51
principal
portion
Local
Mrs
Albums
Alan
Temple
disambiguation
46
authority
safety
Not
##lan
learning
Austrian
brothers
bring
architect
jazz
Diego
ball
1904
exchange
Muslim
claim
NCAA
memory
necessary
Part
methods
read
Mississippi
Heritage
transfer
risk
arrested
frequently
Frederick
Islamic
Hockey
Champions
Brigade
Philip
##sky
perform
##kin
Rose
16th
1901
opposition
fans
critics
box
Who
properties
sons
tradition
Transport
agent
Pope
##ow
Puerto
##om
bought
Douglas
Gordon
Several
ending
look
relatively
copies
application
Youth
partner
reason
Belgium
##q
Tokyo
##ue
resources
creating
nuclear
##sis
kind
lake
protection
follow
Arab
##ker
Welsh
powerful
Culture
covers
alternative
So
effective
laws
squad
##ments
1903
Hotel
daily
guns
##tive
settled
6th
ends
hands
category
attempts
Prix
pilot
returning
1902
audience
##ties
statistics
Good
acts
rank
Ukrainian
Ray
weight
Eric
performing
Allen
deep
girls
Player
shared
actions
Doctor
your
simple
Villages
broke
sense
search
Story
Adam
fought
needs
supply
conflict
Tamil
Antonio
Independent
Lincoln
Due
churches
setting
defense
##up
morning
attacked
funding
Clark
judge
citizens
prevent
approved
Portugal
refused
Forces
block
Samuel
promotion
Ali
##ong
Rural
competitions
Walker
sign
programme
employed
Stone
##ae
forest
7th
converted
Commander
Description
Tournament
joint
54
trees
expansion
subsequent
airport
Miami
Last
Dave
mayor
founding
visited
yellow
##ised
educational
historian
say
EP
Denmark
Musical
fields
Juan
stand
derived
literary
dropped
winter
horse
maximum
extensive
Administration
Bureau
##ons
unable
Orchestra
port
representing
selling
Battalion
Program
Age
Hungary
locations
Natural
sexual
attempted
Imperial
matter
normal
Moore
##ini
Jesus
Kevin
functions
multi
peace
height
enemy
receiving
actresses
Kim
Ocean
rail
Arkansas
beyond
boat
##ms
soccer
economy
tennis
Pro
drug
##one
pieces
aged
DC
Website
refers
Dance
Girl
Christ
phase
brand
Romania
directors
##water
##he
Village
champions
letters
condition
weapons
centuries
Heart
onto
global
##ek
consisted
Marie
determined
highway
begin
temperature
Ukraine
worldwide
occurs
lot
display
increasing
pages
pair
controlled
driver
1898
95
us
poetry
Iraq
opposed
Dublin
someone
Colonel
existence
Jan
##ino
hotel
Bell
permanent
represent
56
managers
rear
##dale
##ities
rise
##ings
herself
launch
Roger
1930s
Mayor
focused
Communist
identity
##ku
technical
offices
killing
slightly
Max
retirement
shortly
write
1899
Then
Montreal
farm
Hollywood
climate
##ris
combat
##im
José
Cemetery
planning
##ran
Boys
##sk
question
finds
cricket
##ik
Anna
##ves
##ore
powers
##si
fuel
Cleveland
ways
religion
want
Dan
##tra
recognition
##ks
Square
honor
Now
Legislative
sector
speech
Girls
Upon
stay
53
Trust
screen
##ged
failure
hall
Rivers
Comics
Lawrence
holding
selection
domestic
map
developing
##ver
meant
faced
doing
reasons
influenced
##̀
representative
consecutive
contact
Ryan
##ang
##Z
Bruce
##ize
Utah
exhibition
59
##ating
independence
Carl
Bowl
##red
supporting
foot
charts
09
Jordan
contributed
1897
Five
straight
Edinburgh
Reception
Pittsburgh
merged
successfully
Tim
Deputy
paintings
contained
##ski
1890
Real
Operation
##é
castle
Malaysia
royal
und
card
draft
choice
rare
qualified
Atlanta
Publishing
bands
Cultural
candidates
establishment
Windows
Once
1895
orders
Romanian
1896
08
trained
Ross
Finland
steel
##je
details
comic
edited
57
abandoned
brown
##tta
kill
core
price
bar
producing
presidential
58
involving
beat
Indonesia
incorporated
occur
engines
walls
Prior
ultimately
trying
Kent
Boy
Years
applications
12th
think
dates
##ara
standing
##tan
loan
Dean
Our
Saturday
passing
Alumni
funds
connection
Billy
animal
##ney
Digital
heavily
standards
Transportation
entrance
shape
recordings
starts
scenes
##gen
objects
possibly
negative
Go
Seattle
Ottoman
Male
advance
passenger
graduate
Baltimore
invited
Jane
fleet
passes
escape
islands
Energy
serious
Silver
enter
07
internal
songwriter
proved
exist
compilation
##gate
carry
translation
expressed
ring
Global
quite
Victor
Pierre
voted
Conservative
promote
##ola
Serbian
toward
reality
roof
Though
Matt
protect
8th
target
Metropolitan
##em
##gh
sought
Command
registered
ABC
Volume
##gi
##more
##ye
calls
##back
ex
Margaret
introduction
composers
birds
inhabitants
99
translated
Way
consisting
Chart
regarding
lawyer
Week
Maine
Belgian
##ology
Spring
Reserve
headed
bodies
investigation
##̈
Palace
Grant
maintained
Pan
Sound
patients
Russell
images
adult
believe
incident
Christopher
1889
05
causing
##rum
laid
Moths
violence
iron
Champion
1892
Ed
aid
reaching
avoid
Harris
speaking
##zi
Guard
98
Sport
Johnny
heard
Morgan
specifically
150
vice
Defense
edge
13th
Dallas
End
try
strength
Vienna
##board
junior
stadium
scheduled
flow
##vi
views
cricketers
Century
06
collected
finishing
northeast
really
stock
twelve
1893
MPs
Kelly
Moon
injured
Will
Rights
Be
painters
Garden
Jimmy
Athletics
Les
##ical
row
Alex
Thus
techniques
##ins
flying
##res
installed
15th
Peace
causes
##ten
##lis
Wars
boy
Short
85
humans
##ions
resigned
establish
Studios
Publications
10th
72
Hills
Norman
##Q
ideas
importance
Hampshire
improve
device
entirely
Section
protein
ceremony
decades
closely
##ft
residence
Gary
Princess
Companies
publications
How
Nelson
14th
opportunity
Rio
MP
Baron
skills
1894
armed
1885
wood
Expatriate
Knight
courses
improved
door
singing
1891
Birmingham
Franklin
hired
environmental
Adams
Railroad
am
##sing
Sarah
drawn
Stewart
duty
seems
corner
secret
looking
Back
agency
##lus
Liverpool
fashion
Kennedy
animated
2000s
Thompson
Jeff
electronic
starred
##ics
describes
Opera
net
##ric
compete
peak
shaped
##ux
object
neighborhood
Finnish
Constitution
northwest
values
##ible
bill
stating
gets
01
getting
costs
budget
municipal
foundation
dynasty
engaged
##lly
Training
tropical
##ou
address
statement
employees
philosophy
Singh
##ise
Ice
criminal
Personnel
Note
ruled
FIFA
boys
spot
Daily
greatest
##ho
Carlos
Nick
easily
constituency
Alfred
lands
Upper
Argentine
Brothers
Stanley
observed
folk
Players
gain
composition
Chile
Lower
briefly
Taiwan
users
Trade
profit
user
equal
96
Donald
actual
Economic
Campbell
9th
broken
mind
Studio
sale
chain
universities
04
homes
interests
1888
sub
resistance
prize
operate
reserve
Die
distributed
Just
heat
adapted
11th
Stage
CEO
marine
documents
glass
factory
interior
Soccer
##ula
commune
Austin
journal
##bi
colspan
sequence
Crown
fine
Profile
invasion
leg
sections
Ann
Senator
argued
Jason
##port
regarded
##ving
step
items
producers
Grade
survived
seventh
bottom
Test
Ian
backing
da
joining
66
weather
seconds
extension
Broadway
persons
Dark
Thailand
Primary
Assistant
##tors
hits
flat
Agency
venues
extra
Gulf
reduce
leads
Here
divisions
participate
Alliance
contain
Orthodox
Guide
concluded
Judge
##ious
Lanka
Wood
62
##king
signal
chose
affected
Collection
Graham
save
Roy
Matthew
roads
didn
tries
Medicine
Wright
fast
adjacent
owners
plot
bit
attached
##lle
1887
examples
agricultural
hundred
Charlie
medium
committed
Portland
earliest
Brooklyn
southeast
94
opposite
stands
NBA
78
##ii
storm
Current
Mission
valley
1865
zone
athletes
Race
accident
capture
premiered
Album
rowspan
combination
Nazi
reaction
1880
Marshall
Metro
Disney
naval
bishop
Carter
motion
operates
typical
Ten
why
Staff
rich
##tz
Do
Elementary
calling
southwest
Murray
Base
82
##logy
97
acid
intelligence
##ual
Dakota
##cia
township
Jazz
Blues
Andy
accused
formal
ethnic
regularly
Express
equivalent
showing
grounds
##ock
nothing
painted
eye
03
guitarist
##cher
fired
##her
Flora
notably
Discography
stores
Cathedral
defensive
##llo
Yorkshire
cycle
demand
##ery
Lane
Lost
Stars
Athletic
250
Through
talk
Action
77
brief
moth
Down
session
delivered
credited
contributions
##lt
designs
88
scholars
communication
1886
Iron
##jo
Convention
secretary
Las
Seven
solid
1884
##ld
Wayne
ahead
width
Nova
teachers
wind
Literature
Barry
difference
driving
Honours
degrees
##tone
Ward
residential
Language
##ory
##lar
Six
lists
##ys
legislation
rating
##els
92
instruments
Orleans
damaged
collaboration
represents
pro
freedom
provincial
Organization
praised
factors
Egyptian
goods
decade
devices
600
Front
68
Robinson
die
Alaska
debuted
carrying
##ud
Cricket
Serbia
magazines
partnership
1864
maintain
Karl
Defence
1881
publishing
purchase
stages
racial
Liga
##bs
mobile
medicine
wounded
description
Fred
##time
##rin
02
74
chemical
passengers
rooms
extremely
returns
1863
ones
references
businesses
Delhi
Hawaii
visual
Educational
1861
Movement
charges
Politics
replace
##po
require
##tions
Limited
Construction
76
Non
67
Camp
attend
##ward
##and
##gy
##op
1862
1920s
priest
struck
Authority
##ata
charged
strike
71
Woman
##room
UEFA
##ming
##our
##ster
Even
Voivodeship
##izing
61
1870
Morris
Rico
perhaps
designer
Madrid
63
flag
Racing
##van
Work
distinct
Glasgow
purposes
respect
picture
Li
##ique
determine
drivers
arranged
Bangladesh
biggest
chance
request
Turner
##rk
##ens
##nia
800
genera
Can
mining
classification
poets
prisoners
frame
routes
Warner
depth
##rus
93
Borough
advantage
plus
##ren
behavior
1882
turns
##zed
Species
ranking
plane
mine
contest
Iranian
measure
courts
weekly
Parish
Wrestling
otherwise
colleges
rivers
Richmond
##mm
Victorian
factor
Indians
shooting
link
Theater
don
restored
##work
investment
separated
filled
franchise
##yan
1883
assistance
measures
Warren
dry
##bility
Cities
Computer
##wick
contrast
meters
Dead
##ians
poverty
Baker
Demographics
sell
storage
let
Municipality
dating
hosts
Vancouver
Writers
##ded
##vo
understanding
Site
84
86
##́s
Jerry
tank
duties
Nevada
caught
##ua
rejected
Capital
stood
Islam
##bach
##tti
anniversary
reign
Standard
offensive
91
##ans
Jonathan
subjects
73
pick
admitted
##sed
collections
69
protected
Rangers
videos
learned
newspapers
trip
accompanied
Selected
1878
Oblast
linked
Wild
poem
##ington
83
Nebraska
Trophy
mean
##oo
##rian
Contemporary
Artists
businessman
classic
critic
fixed
##rn
capable
##let
Barbara
CBS
##gs
Greater
NY
scientists
coal
executed
Pradesh
Mitchell
pattern
nor
81
requirements
institution
Side
Report
Saints
Caribbean
ve
Labor
Benjamin
##ru
responsibility
assumed
testing
AD
Page
banks
##nts
retained
covering
##era
medieval
colonial
aspects
suggests
landing
popularity
challenge
##book
Late
membership
organisation
1876
severe
audio
Milan
ownership
Symphony
##wan
none
Arabic
Prefecture
genre
technique
commission
Online
Orange
vessels
Nicholas
theater
##tal
channels
Tower
Hans
Additionally
cm
fictional
successor
agencies
championships
policies
reception
significantly
Food
##̌
brain
requires
##ella
defeating
1875
Falls
victims
vocal
prepared
##ral
rates
thousands
element
authors
##side
bad
judges
Houses
Unit
credit
coastal
stopped
##ev
questions
DNA
crisis
Ancient
1879
interested
Type
Parker
papers
##ita
Urban
context
orchestra
path
Bernard
Private
experienced
heritage
criticism
Count
Tigers
arrival
Jerusalem
89
Common
Bristol
relative
Wing
Zone
Philippine
file
roughly
Let
journalists
solution
Google
shop
limit
habitat
Pictures
Bible
falls
crossing
evening
Edition
Challenge
##gar
1867
window
Technical
restaurant
Guinea
Colombia
##ire
string
Father
Sky
Evans
ensure
gender
powered
mark
replacement
Alberta
Bush
manufacturing
##bridge
processes
task
1871
coverage
ago
Record
components
##cus
entertainment
script
##lon
cited
Control
differences
Fine
##yn
wine
criticized
classified
##ei
heads
qualifying
reform
1860
Communications
##zer
Systems
forming
Originally
poems
Performance
Hunter
municipalities
87
Manhattan
79
stayed
scheme
parallel
driven
Terry
equipped
Bobby
occupation
concerns
Freedom
suicide
organ
Buffalo
Peru
Kings
expression
scope
1868
Trinity
narrow
locomotives
counties
practices
##ci
Classic
Nigeria
##ok
camera
garden
Oliver
dated
##hu
portrayed
runner
Original
tied
wave
##ct
Branch
SR
constant
NBC
Jay
1877
labor
meets
Industrial
squadron
offering
assembly
windows
Communes
cards
controversy
electoral
##nie
mode
##lli
Afghanistan
arm
##ane
1874
Democrats
Persian
1000
hair
hot
guard
NHL
somewhat
Montana
Keith
streets
appearing
forests
##ros
Charlotte
publisher
Mediterranean
##ile
brick
soundtrack
Alice
formally
DJ
##00
adaptation
peaked
daughters
Child
##tis
fishing
120
Population
strategy
##lation
##master
hill
##over
eyes
filmed
historians
Bachelor
1873
message
Harrison
##mus
Friday
proper
Cuba
activist
opinion
nations
##light
Architecture
Play
Socialist
frequency
prime
Rail
boundary
definition
Model
##cing
movements
finding
gene
couples
Meanwhile
threat
broad
##ability
steam
benefit
Chamber
wooden
##isation
instance
Knights
##mon
mountains
temporary
Larry
soil
grant
celebrated
##ett
feel
progress
justice
huge
Phil
Cooper
Electric
modified
markets
motor
affairs
Beijing
1940s
Herbert
flows
nomination
eliminated
infrastructure
Luis
Bulgarian
childhood
Croatian
RD1
Delaware
##istic
1866
Around
regiment
Episode
debate
kg
Clinton
influential
Collins
achieve
##od
Flight
LGBT
1872
Virgin
railroad
##rie
##ball
Faculty
grown
##shire
amateur
Arena
downtown
##war
##dal
vessel
boats
sponsored
Canal
Hugh
Representative
missions
Ken
Catherine
grow
raise
soldier
column
Vincent
Universal
Future
expedition
annually
##tory
entering
artillery
medals
Cincinnati
friendly
manner
rose
Vermont
skin
Hispanic
Draft
adding
artistic
##ative
Lloyd
Fellow
Harold
##ification
mounted
helping
##zo
handed
Territory
Gray
considerable
survey
##ser
declined
learn
Phoenix
releases
networks
spoken
Industry
##all
proposal
tools
replacing
volumes
##tin
Fleet
##ants
##down
Admiral
Days
Fall
threatened
mouth
Yale
Mother
deputy
surviving
Costa
indicate
##dle
Aviation
Dick
losses
branches
territories
Nation
credits
explained
Defunct
mental
Data
strongly
representation
relief
Web
domain
##ened
Code
Unlike
Treaty
Armenian
manga
##vin
preserved
dog
indicated
accounts
Wall
Broadcasting
personality
Key
fan
carbon
Anti
##ette
hip
reputation
eighth
swimming
anything
concrete
completion
Honor
circuit
existed
visitors
parliament
resolution
experiences
flowers
minimum
underground
rounds
Commissioner
Robin
Hudson
Statistics
Jefferson
cousin
changing
Muslims
option
worth
centers
Nature
speak
Municipal
Amsterdam
Critical
Trail
Dream
output
YouTube
##und
Madison
Roberts
Policy
comics
chair
Market
##shi
1869
involvement
Muhammad
##ges
chapter
bringing
tall
Hindu
occasionally
scholar
São
Craig
##ras
increasingly
distinguished
rival
processing
fund
depending
satellite
versus
Dennis
Students
slow
Unincorporated
cold
happened
SS
1850
penalty
##ala
Operations
surrounded
Diocese
Croatia
filed
##ira
##py
appointment
Cook
Magic
Artist
Farm
Fund
participation
1859
printed
phone
thirty
le
Masters
Within
Guy
Bad
Adelaide
festivals
characteristics
print
##oon
conduct
tests
##har
USS
maintenance
document
Bar
disc
Jacob
longest
external
transportation
everything
marketing
FA
continuing
ratio
Environmental
landscape
LP
##ui
Denver
Release
##ick
illegal
Secondary
##sson
Munich
tribe
Barcelona
RAF
Win
journey
Venezuela
waters
Athens
eleven
Fish
##fer
biography
##ray
Butler
wild
shares
safe
signing
horror
appeal
effectively
##nik
Right
Minor
keyboards
##med
Angel
licensed
anime
Bulgaria
Anglo
treated
##rate
Stuart
affiliated
emergency
Ralph
Springs
consider
Rogers
Are
Marvel
surgery
Finals
Recipients
Horse
trading
fly
alleged
Eddie
##ensis
##off
mathematics
Helen
colony
Distribution
voting
2010s
##fish
##illa
Fictional
photography
Artillery
Hope
##lands
movies
controversial
Aircraft
architectural
##ides
secure
Baptist
percussion
Berkeley
apparently
funded
Ron
feed
Filmography
https
lasted
AM
massive
demolished
doctor
##rat
planet
Hebrew
##ters
Airlines
exists
themes
tie
studying
##low
Vegas
##ations
rated
Microsoft
romantic
parliamentary
makeup
visible
Norfolk
Thai
inner
Small
decline
fighter
VI
agents
##stone
Attorney
##dra
journals
accept
mill
approval
ill
discovery
occasions
##hill
styles
colour
agriculture
Campaign
beautiful
injuries
jobs
1848
1857
segment
breaking
wheel
elevation
tell
Nepal
drawing
Azerbaijan
locality
Winners
resident
##tle
##list
##ably
sees
Run
graduating
competing
Luke
Article
##ston
stream
vision
whilst
Op
##ena
favor
grand
instrument
populations
##ator
faith
facing
Single
touchdown
Secret
Pop
knew
Amendment
##ida
museums
sportspeople
Movie
instrumental
moment
Number
supports
wants
Greg
Neil
rescue
Archbishop
##hn
thing
##sia
bird
Buddhist
denied
Jon
exception
terminal
Saudi
cable
##ceae
experimental
meetings
license
youngest
uncle
Medalists
earth
##ona
blocks
Ottawa
submarine
symbol
Conservation
unusual
##del
convicted
##ites
Financial
##bar
acted
Student
attracted
advertising
hop
donated
##AC
Abbey
contribution
Coach
Perry
vol
voiced
employment
wrestling
Economy
Storm
everyone
##ich
greatly
hundreds
horses
sentenced
traveled
##sy
arrest
infantry
Baby
##ken
Instead
Actor
participants
Drama
bomb
Revival
##aries
Jacques
defence
diameter
Weekly
Kenya
Leeds
Dragon
whereas
shall
Syria
gone
counter
Female
Stanford
normally
broadcasting
rapidly
doesn
assist
silent
##ugh
organisations
begun
##kov
concern
Events
##feld
Giants
bridges
Edwards
Tech
Rev
Outstanding
##yo
benefits
transition
amongst
archive
ll
Manager
Fair
describe
afterwards
turning
summary
visiting
mix
patient
spirit
##cs
##nal
Christianity
competitive
concerts
UN
grandfather
Commons
attributed
detailed
integrated
obtain
dominated
1858
crash
Formula
##heim
##sha
posted
cricketer
concerned
easy
Steven
martial
Wang
concentration
Fighter
Peninsula
percentage
##ig
Germans
drew
nominations
abroad
drop
corporate
operational
Bengal
signs
honors
Friends
##ture
Danny
Pakistani
opportunities
widespread
Petersburg
wings
seek
spiritual
##sm
##my
incidents
relationships
principles
Rick
venue
Chapter
suspended
Susan
statue
periods
apply
gallery
kingdom
Cold
Arnold
Grace
ministers
creative
customers
##yard
cinema
1855
Tommy
1854
send
recommended
##cker
bound
indigenous
pool
spending
fantasy
##bad
beach
##burn
cabinet
Newcastle
schedule
Pedro
ruling
generated
supplies
gay
##SA
assault
indicates
##ani
crowd
##yer
Drive
extent
##ora
Raymond
drugs
transmission
##dan
writes
Along
thousand
destruction
picked
lieutenant
choose
##las
Exchange
erected
Shortly
departure
representatives
Holland
ranks
texts
Independence
Manuel
categories
associate
suffering
endemic
operator
parks
##lu
rapid
Leo
##cha
Jose
700
##ab
Election
component
intersection
##we
Soul
chapel
crimes
disestablished
1852
convention
Blood
##day
Legacy
##ering
duo
supporters
##̃o
emerged
Auckland
fort
rebuilt
fruit
Together
PC
Left
remainder
##ied
spoke
governments
Apple
Wellington
contested
ready
claiming
##kar
##use
partly
##ale
##logical
Brisbane
Sierra
panel
Latino
##row
Gilbert
##ano
Scotia
keeping
merchant
unincorporated
1856
restoration
walk
drummer
Until
Get
physician
Lebanon
absence
assets
Harvey
Mason
shell
editions
possession
Grey
Finance
electrical
moves
Renaissance
Lions
immediate
##ular
innings
##pers
Encyclopedia
Charts
insurance
commanded
copy
asks
Source
physics
Byzantine
Scientific
honour
activists
coaching
##tein
Allied
communications
##°
inch
produces
Economics
violin
Fellows
useful
Brunswick
substantial
viewed
wear
Golf
Wolf
seeking
opponents
Christians
Flying
memorial
Anglican
apart
gradually
tribes
Murphy
Deaths
Productions
Mars
behalf
Such
tail
twin
##tha
Annual
Commerce
##bert
conservative
buy
##bly
researchers
toured
##berry
database
soul
watch
Sheffield
premiere
platforms
residing
##tter
acoustic
sculpture
##mp
hearing
volleyball
arrangement
encouraged
significance
Florence
fitted
evolution
Soon
##vy
##ple
ft
add
##its
extreme
reveals
Additional
abuse
formations
partially
##oy
suit
settlements
Son
el
viewers
##zy
Gregory
Eagles
protest
anyone
##ration
roots
frequent
Mobile
traded
manufacturer
Fourth
identify
Derby
attractions
Agriculture
Gmina
Leader
Voice
Where
##ify
Having
photo
Idaho
retail
##ova
charity
talent
photographs
Study
appropriate
Joan
Winner
runners
Ivan
matters
Venice
ninth
sentence
subsidiary
##stic
regime
##mes
civilian
enjoyed
##so
attorney
Parks
chamber
Motor
##ese
understand
##MS
publicly
Facebook
conservation
struggle
##ene
apartment
guide
count
cargo
Republicans
Philosophy
Cruz
tenure
Maurice
aimed
##ess
Every
Range
##net
characterized
monument
Oscar
doubles
Mills
Southeast
Wallace
weapon
provinces
Car
palace
assisted
tanks
farmers
##lock
Full
grey
reportedly
##ix
Congo
attending
lawyers
##bu
Writing
lay
defending
relocated
Shanghai
recovered
drafted
##ridge
Competition
decides
junction
Confederate
programmes
perfect
##gia
gauge
Ball
Higher
Churches
missed
stable
##ias
Total
Bus
Kerala
##ines
Sony
locally
##lum
##dia
Plan
Price
Circuit
partners
emperor
exposed
##bed
##gon
ride
##MA
discussion
Next
passage
Chapel
Rob
seed
Sullivan
##via
##uk
##mal
1847
Watson
relation
limits
Room
Newton
Phillips
concerning
PlayStation
possibility
scientist
Grove
legs
throne
Milwaukee
apparent
implementation
else
solar
##ika
adults
Archive
##ill
manufacturers
1851
involves
outer
balance
truth
1849
1853
shore
fair
margin
##borough
steps
wedding
fit
borders
mechanical
pitch
101
Leonard
Trump
layer
Ma
Poetry
##jan
##chen
##lic
##ao
Intelligence
displayed
neither
##con
##ase
Princeton
continuous
voters
principle
Delta
##oe
##zing
falling
ceased
belief
3D
lose
suburb
debt
treaty
Laura
Filipino
##oma
scores
advice
reduction
##dar
Ridge
Commercial
Ships
Bosnia
false
establishing
emigrants
Yugoslavia
defenders
outstanding
##ches
terminus
Protection
hunting
colors
settlers
wearing
Academic
lowest
guilty
Guardian
constitution
Much
giant
Essex
deployed
##TV
Marc
remove
Obama
Reading
engineers
recipient
traditions
Wells
murdered
##ved
bishops
organised
Hitler
discussed
constituencies
##ić
Gothic
touring
increases
Comedy
EU
##ac
Hindi
Religious
Sean
##mar
implemented
##min
Somerset
clearly
Articles
decisions
Overall
clothing
Based
##val
##ses
Morning
Machine
bonus
##ari
##gal
jurisdiction
Tennis
Joint
Dame
Nashville
uncredited
weekend
circumstances
commented
Block
manufactured
qualify
##su
baby
reporter
##bal
machines
Pat
believes
##itz
desire
conductor
Gabriel
##nic
##din
sole
topics
##nis
Saskatchewan
tournaments
Pete
Mass
MTV
Monday
peoples
Sultan
Clarke
initiative
##als
sessions
lap
plate
honorary
##tar
##IS
##born
Ground
Mill
Columbus
eldest
Johann
closing
occasion
belonged
Warsaw
Ted
##́e
Box
enforcement
##ction
Prague
Panama
Indonesian
violent
earthquake
grades
fled
##bus
Therefore
Currently
connecting
inaugural
earning
fear
exclusively
##nan
1840
patterns
Bird
regulations
beauty
SC
##pin
Foster
##ates
Those
mechanism
index
Harbor
Shakespeare
Dictionary
householder
##bin
Hughes
##rry
Hunt
origins
##lam
parent
Spirit
conversion
##ois
##ulation
rising
Name
##view
monastery
Kate
Oakland
tours
PhD
punk
revenue
cemetery
Democrat
Spencer
Maritime
cancelled
Cole
soft
##rio
Ph
tunnel
Otto
bid
pain
Junction
sailed
seeing
legislative
playoffs
Montgomery
Throughout
scholarship
diseases
spaces
Initially
##tu
focuses
mines
strategic
Ernest
1846
boundaries
bay
##gne
portrait
survive
Genus
Paulo
Syrian
patrol
Actress
belonging
##ban
automatic
Mario
novelist
productions
beating
electricity
initiated
diverse
dual
Cuban
Serie
Revolutionary
conventional
Ambassador
vertical
opponent
exclusive
helps
ongoing
Climate
suitable
serial
##ico
Abu
Northwest
athlete
crossed
landed
sequel
closer
Rhode
bed
coalition
Provincial
Iraqi
cup
Todd
Piano
dispute
Justin
##ven
Miguel
adventure
isolated
expert
bases
responded
minority
Wilhelm
Environment
secured
designation
ranging
Chair
immigrants
Palestine
Han
Lt
golf
zero
correct
demonstrated
Individual
sung
Bennett
Forum
fee
variant
##pt
##pi
alliance
Indianapolis
trust
Aaron
Elections
tend
Sox
Guitar
withdrew
Low
alternate
sufficient
Cameron
battery
##ade
##mic
pitcher
pursue
Lakes
timber
banned
Protestant
Nine
riding
##nus
Finally
housed
Legal
grandson
rarely
Engineers
internationally
tool
##dor
Shah
bear
influences
contributing
Eagle
Fiction
dangerous
essential
pupils
##lay
latest
maps
##xi
tribute
clinical
gang
connections
Taxonomy
delivery
Kenneth
##mark
Abraham
merger
Romanized
##ces
Villa
##ima
eligible
Wind
marks
biological
rain
Friedrich
##ified
identical
usage
Again
Mumbai
dam
destroy
##rman
saved
interviews
##ching
Campus
charter
evil
François
Software
illness
doors
aim
repeated
suggest
Vietnamese
standings
Lisa
##cal
protests
Pearl
linear
unsuccessful
practical
acquisition
trials
Hamburg
née
##gel
##ith
Workers
##du
debuts
Grammy
dominant
fifteen
Dog
originated
##ars
##cks
Furthermore
finance
completing
Principal
sisters
##nsis
##uri
thereafter
traditionally
##ón
hero
##ets
overseas
Pre
sang
intention
devoted
##rated
Liberty
##mate
seem
universe
##nk
Isle
Distinguished
Off
substitute
Roosevelt
waste
shopping
crown
##ax
Support
Marcus
certified
conclusion
novelists
Shaw
campaigns
Draw
Popular
##ome
unlike
##oid
promoting
##ware
temperatures
mention
trail
Bass
ray
wealthy
listings
clan
Mac
venture
Religion
Stockholm
##tation
exposure
till
##ship
raising
mixing
##lee
##bra
Schedule
Sussex
Hart
Towns
compositions
internet
metropolitan
110
hope
Ronald
vast
pictures
##tro
magic
à
cattle
cash
industries
supposed
circle
##pes
Michel
##ez
reaches
##urs
Regular
battalion
##ncy
oriented
1839
acres
writings
sounds
rice
##ivity
Vladimir
##brook
extensively
##ways
unless
##mont
Theory
inducted
economics
photographer
Aires
Classical
Come
Punjab
legend
repair
forwards
##craft
##lies
dismissed
express
Advanced
slaves
Perth
thinking
shift
Musicians
Albanian
Athletes
submitted
sharing
1845
Desert
Teams
##nda
tons
jury
carrier
alive
Stories
restricted
departments
Buenos
expensive
##pus
Circle
Nancy
Double
dependent
elsewhere
Cinema
##ids
##lie
##ag
1830
Index
battles
prices
preparation
##ain
proteins
##ada
Exhibition
pointed
respective
monthly
cooperation
thick
Archives
angle
borough
Jamaica
marry
Durham
leagues
fresh
accessible
clean
1837
guests
Manitoba
Methodist
Bears
##bel
victim
manage
Railways
playoff
1844
organic
##sta
constitutional
ref
uniform
##cent
##maker
Cabinet
Case
Leslie
chemistry
stress
Franz
partial
shoot
Care
remote
NASA
Colin
illustrated
strip
Mix
photos
preferred
Heat
evolved
hence
##vis
corruption
visits
Birds
exercise
truck
##eo
corresponding
Arabia
jump
interpretation
ties
Ghana
##dge
grows
Safety
liberal
##hy
Louise
usual
Semi
looked
AP
expand
excellent
formula
taxes
Dominican
Never
decide
worship
dollars
departed
##ito
Chester
Deep
Reed
describing
hidden
negotiations
reporting
revised
Josh
burned
SI
##hood
animation
vocalist
Davies
aviation
depression
pianist
ages
Steel
favour
Salt
Palmer
buses
##ologist
Yellow
##eau
columns
##ight
1800
Literary
Grande
participating
exhibited
spin
walking
Producer
requested
Overview
##ole
ruler
Celtic
receives
##try
Cardinals
##bing
Physics
execution
gardens
Catholics
Oil
flights
Nigerian
Universe
##hl
specialized
##ap
##orn
Parliamentary
Wildlife
restaurants
disaster
1841
Fisher
managing
Manila
sample
approached
genetic
Ruth
recognised
Cardinal
canal
##away
Change
athletics
exhibitions
pioneer
technologies
targets
permission
sur
Sr
Lancashire
##gger
fighters
compiled
elementary
Tree
clock
travelled
##una
Dam
birthday
Gardens
depicted
worst
sum
attempting
relevant
Ellis
##nation
Continental
HMS
##bird
Devil
Sweet
Ghost
nickname
##ult
theories
##ew
##FA
Eventually
answer
incumbent
##HL
atmosphere
manuscript
reviewed
Lucas
Isaac
rocks
Colonial
beetle
phrase
Males
Self
Queens
guitars
##rant
Far
extinct
carries
Angels
Laboratory
##ress
architects
measured
priests
Emma
Plant
slave
Liu
Santiago
##lio
Stakes
Tiger
leaf
Allan
Beginning
defend
wider
worker
updated
##wing
labels
Westminster
eggs
Denis
900
input
perspective
resignation
options
funeral
Palestinian
relegated
inspiration
summit
Merit
##hr
##ori
fill
backed
Cyprus
##atic
wealth
explains
Cork
affect
spend
Regulations
choir
1843
Interview
hole
130
computers
Engineer
objective
##ska
liquid
Sergeant
Fantasy
##ological
literally
tier
tributary
wrong
attendance
##lf
recovery
sand
winds
exact
challenges
Oslo
founders
Formation
##tto
Simpson
VII
mainstream
Stevens
sugar
Newport
awareness
slowly
Fernando
Spider
speaker
outbreak
Il
Claude
looks
shops
brands
Devon
Ecuador
##bles
flew
experiments
symptoms
altitude
belongs
farming
alcohol
Diamond
1832
##ord
ban
escaped
nephew
midfielders
therapy
Lithuanian
argument
capita
salt
tourist
Honorary
procedure
prove
Version
1842
Fifth
Rice
speakers
##tia
inherited
variable
Still
Nintendo
comparison
disestablishments
Without
vary
camps
deck
##ama
##yl
roll
##point
hardware
root
weak
Armed
waiting
comprehensive
error
assists
##fa
abilities
sitting
Dynasty
reducing
meat
Malta
diplomatic
Hull
predecessor
tone
favorite
graduation
Legend
telling
Return
Take
Wyoming
##ach
##sville
Remix
##cast
load
##box
Ring
aboard
105
enrolled
Interstate
##lot
Rovers
##plane
1812
Julia
Owen
##mas
Electronic
communist
affair
##ean
##10
##og
ad
Editor
Giovanni
arriving
logo
##cht
División
authored
installation
Bros
exactly
pulled
##set
Stock
Tampa
emphasis
informed
distinction
cavalry
1838
legislature
controls
ministry
##fi
Heaven
outdoor
Treaties
enters
hills
Julian
Planet
supplied
##sie
##OS
crosses
neck
Antarctic
fastest
revolution
sun
permitted
distinctive
Location
quarterback
1835
defended
tested
Resources
thin
files
##mine
##uring
difficulties
pilots
worn
Legion
blues
essentially
##ath
Sabha
##eh
##ree
Lithuania
extend
Calgary
filming
god
MD
enemies
FK
ocean
collaborated
collective
Animal
renowned
Java
copper
sized
achievement
belt
##ished
Morocco
##boat
earn
##los
calendar
cutting
Bronze
midfielder
narrative
Chen
Porter
simultaneously
Estonia
moral
##hall
forty
placing
Ministers
##inger
Copenhagen
commenced
solutions
bombing
Eurovision
Gate
Banks
Canterbury
Recording
thriller
Hurricane
html
CA
superior
##ert
##oi
characteristic
Andrews
Progressive
Chancellor
compound
lakes
Solomon
talks
dramatic
Nadu
##das
##nberg
imperial
Against
switched
Picture
##ther
##mba
locomotive
demands
Cornwall
##yi
Armstrong
veteran
framework
numbered
Indies
##zar
CDP
Snow
Uganda
collapse
Herzegovina
Bryan
Rich
Lists
Linda
Universities
dies
##uan
siege
removal
André
arrives
opens
archaeological
Georgian
Powell
ranges
Crime
descendants
feelings
disbanded
Bradley
Gene
Brother
arrangements
Complete
Table
verse
editors
ratings
Examples
##tre
Playing
Relations
concepts
decorated
Duncan
ISO
Franco
Penn
happy
Baronet
Oak
##iel
Ferdinand
##len
##osa
approaches
Contest
societies
##ght
brigade
impossible
Eugene
Heights
##tch
aware
drum
detail
##fall
Presidential
View
##ched
philosopher
##law
tourism
Novels
consumption
seemed
citizen
Glen
Rolling
teach
Frankfurt
Tourist
referring
aspect
Leon
Ages
bond
pitched
Faith
##í
Tales
NATO
transit
mail
metre
variation
coached
milk
##iya
Half
Memphis
virtual
##ere
##kan
##car
Orlando
Yang
pairs
difficulty
Edmonton
##key
kilometers
bone
##ace
Nathan
intellectual
studios
relating
roster
ward
stops
1836
##ures
##end
Bond
##rine
emotional
bachelor
wasn
golden
125
Henri
rhythm
Others
Past
bearing
fifty
Jennifer
comprises
feeling
Holmes
syndrome
##sburg
Miles
improvements
feat
travels
pole
Nobel
Surrey
athletic
centres
amounts
True
printing
##stein
Away
Albania
coins
namely
##́w
radar
defender
legacy
snow
Emily
missile
sciences
Districts
efficiency
##ute
Bath
Gibson
confused
tenth
##hon
Bradford
Database
temples
regard
Train
Woods
##́a
##cle
binding
regulation
consist
interface
resumed
##dom
##wn
payment
consistent
discontinued
administered
interaction
graphics
imprisoned
closure
##table
historically
##can
##hal
Warriors
loop
temporarily
cylinder
gap
Blake
ordinary
##boy
Nuclear
oxygen
competitors
ticket
Sheriff
parking
sculptor
Fighting
assessment
volunteers
rocket
##ders
dissolved
explain
psychology
suspension
radiation
tube
1834
##fe
Brussels
##graphy
##horn
##weight
rifle
Chuck
##ben
##ille
##ising
Bear
Money
Iceland
Sons
sporting
firing
##borg
Adventures
operators
comments
Amy
Mid
AFL
Beyond
hospitals
stroke
##ees
throw
##tum
documented
##aire
connects
##ela
exhibit
developments
contracts
deemed
Batman
arena
Hell
Rochester
reflect
Learning
bin
##12
reserves
Physical
allies
orange
broadcasts
warm
Transit
delayed
magnitude
mythology
Palomar
undergraduate
footage
breeding
##cho
Malaysian
Capitol
Curtis
fame
comedian
gift
progressive
Harper
experiment
Episcopal
celebration
##sch
Alpha
telephone
##tsu
radical
gathered
##top
Brooks
##rit
Cardiff
artificial
Mind
connect
equation
labour
Slovenia
recalled
Belgrade
Wu
select
airline
plastic
Am
Various
##mia
Tang
warfare
##eur
##sion
putting
thereby
valuable
qualification
##lated
soap
attacking
kick
1775
Planning
tape
##wer
Chilean
indicating
governing
samples
Der
##EC
presents
Starting
signals
diesel
##sts
Interior
Lutheran
Kumar
structural
queen
drinking
saxophone
Publishers
casualties
victories
posts
Gay
Kenny
Milton
fun
cap
##lers
improvement
Beetles
disorder
faces
abolished
Discovery
span
shut
Edgar
Hopkins
Inside
##com
compounds
##dis
ESPN
##̂
Testament
Call
Amateur
fundamental
pushed
##nton
functional
Bailey
##ero
elder
PA
##cio
pure
stem
Tourism
Chase
asking
spots
discuss
Chess
Rabbi
Connor
virus
Mathematics
efficient
prince
Being
molecular
Haven
Boulevard
Cohen
Armenia
Henderson
revolutionary
consumer
##lica
package
switch
Points
shipping
##ening
Electoral
sing
##had
failing
patent
drink
cultures
examination
beaten
Presbyterian
Preston
artwork
Letters
##iro
arrive
seeds
elevated
proof
traveling
Napoleon
##bound
thanks
affiliate
commentary
Jeremy
Doug
##tics
dealing
1815
Brighton
##ont
Monroe
inter
Directors
Using
VIII
colonies
afternoon
Chelsea
kills
Retrieved
aims
displays
grave
Glenn
coat
##yu
clients
##bank
Set
stored
blog
meter
instruction
basin
prototype
##tel
widow
##yne
Zhang
boxing
layout
Mar
##if
convinced
survivors
Organizations
Rachel
situations
laboratory
Associate
fn
##sman
##works
Estonian
dress
faster
institute
Burton
##shan
plates
Agricultural
Springfield
segments
noise
dubbed
Lucy
ideal
performers
coup
##ack
Cat
Dale
dimensional
bat
##sley
prisoner
102
Lion
un
populated
##hus
##logist
Hugo
recipients
mainland
Course
download
Kingston
wars
1833
Amazon
##dorf
Kyle
cave
extends
tissue
##sted
##zhou
##̀re
Globe
empty
recruited
Working
enzyme
##ju
AC
1831
interesting
##ph
discovers
reverse
Luxembourg
Slovakia
drove
readers
employee
thirteen
handling
ambassador
Fraser
notice
Speed
empire
flower
Morrison
prepare
Generation
prestigious
manages
##aria
Documentary
Eye
Estate
IBM
##а
dogs
Legislature
##sin
Istanbul
Robertson
##lav
graphic
##gin
Belfast
Criminal
custom
dancer
##cular
Nevertheless
plain
Choice
accurate
AFC
orbit
Claire
Gaelic
Tropical
doctors
##are
Edmund
adr
lane
creator
integration
dream
Cornell
shorter
##̀s
vcard
conferences
heir
raid
Adventure
Caroline
Politicians
accommodate
beam
maintaining
chess
Gen
Critics
associations
mixture
dancing
immigration
##rm
Jamie
Communication
Albany
Cavalry
Tyler
Headquarters
neighboring
Lynn
Louisville
addressed
sustained
##ović
##ws
Carlo
##arian
##rich
CE
perceived
touchdowns
Pass
hear
##tos
Salvador
Windsor
predominantly
resource
##20
Geneva
##ios
##ST
crops
Paralympics
##kers
matrix
Del
##rad
##ien
grass
Carol
María
bars
focusing
##bling
smooth
Herald
##OC
MA
extending
dialogue
reforms
Cox
Medieval
forcing
##fully
citing
Marion
Reform
##aki
touch
unions
succession
resort
##dium
presentation
Lodge
Jesse
Roll
spell
##var
breaks
sending
Ludwig
gate
variations
lifetime
coffee
Richardson
brings
##ller
theatrical
##iz
##bre
##aw
Zimbabwe
paint
boards
##late
Title
Inspector
##hin
##fire
360
Date
Lyon
registration
Crystal
dialect
sculptures
ask
nearest
chapters
flood
achievements
cuts
understood
##kai
Halifax
##fication
relay
##een
Municipalities
Martha
revival
handle
preserve
Betty
catch
##ć
actively
Mixed
merely
Combat
chorus
fewer
Chemical
owns
welfare
warning
Plymouth
##kes
contribute
Reynolds
Twin
executives
statements
##bia
1500
exit
criteria
quick
103
140
Burns
Mercury
Copa
universal
reflected
super
creates
honours
girlfriend
check
1814
Ahmed
Nacional
Hero
Alexandria
challenged
Concert
Senators
holiday
trouble
democracy
Advisory
freight
tasks
enabled
##ES
invented
##och
Sisters
magnetic
USSR
friendship
desert
colleagues
procedures
wish
Happy
agree
°C
Endemic
Triple
Was
independently
Enterprise
##wski
intense
realized
requiring
portions
lying
Col
Guards
exile
##rick
sword
180
receiver
literacy
Kurt
generations
Fellowship
##eri
Twitter
codes
eds
guards
intervention
Museums
aggregate
indeed
##iana
Bull
Notre
Malcolm
Shadow
retiring
Naples
Factory
observation
FBI
XI
belong
Ethiopia
Tasmania
##̆
Lords
client
Wednesday
libraries
##wi
350
Eight
professionals
prevented
threw
Map
explosion
##coming
pronounced
Complex
anchor
1820
Arms
##pan
##BA
Abdul
##wald
retreat
Sister
Near
maintains
fallen
##press
advocate
Rhodes
inscription
surrender
Emmy
sailing
editorial
poll
Wagner
Americas
allegedly
fluid
Why
academy
##ose
remembered
presenter
##nen
##nga
##ER
Seoul
104
ca
Arsenal
Brien
Holocaust
AIDS
Carroll
Dorothy
Glass
Presidents
interchange
ports
Willie
fourteen
1825
Plaza
discrimination
seriously
Barnes
Prison
Winnipeg
gaining
##gue
Joel
commitment
underwent
developer
ibn
##pper
boss
##gers
destination
Inter
craft
Alternative
Ulster
##bon
Footnotes
##woman
McDonald
generals
Kids
##esh
Liberation
##lines
##nel
Edwin
Roads
fairly
Heroes
Match
Ellen
Oh
Ernst
##ila
##oni
moderate
endings
requirement
separation
engage
Solo
announcement
confidence
Bavaria
elite
Andrea
Yugoslav
Basin
restrictions
centered
Richards
Trinidad
identification
##rre
Rhine
guitarists
sixteen
indoor
volunteer
##ibility
##tas
engagement
1828
shots
Body
promised
Have
Speaker
##non
Bolivia
mystery
suspected
followers
##IC
bears
Salem
Rifle
ensemble
Das
Algeria
##RA
accessed
##PS
thesis
encourage
permanently
teeth
Eyes
Pirates
##ato
customer
banking
AA
viola
##cted
surprise
Reid
Budapest
biology
106
diplomat
diversity
argues
specialist
Diana
Adrian
Kid
Know
investigate
provisions
Level
Brad
judicial
sat
Julie
##ils
##pp
civilians
goalkeeper
circulation
Coalition
Statistical
##PA
##hs
tip
##ō
jail
signature
Clay
Things
lights
##inae
Eve
sure
repeatedly
750
automatically
Wings
stationed
##rch
Won
peer
Mine
rebellion
Prussia
experts
ye
Annie
Burke
mentions
psychological
Hayes
grants
160
inches
##sey
Prussian
legendary
Elliott
bright
##rius
Metal
behaviour
refugees
Gerald
Macedonia
##kins
Jake
upcoming
releasing
##mel
Gun
##̧
Derek
waves
Inn
beliefs
clay
les
##cies
Analysis
circular
##ex
cathedral
theorem
triple
##tica
severely
Besides
Newfoundland
comprising
Recent
conjunction
headquartered
Guest
Present
##uck
##rain
Leadership
firms
Lines
lighting
sharp
demanded
Style
playwright
knows
quoted
conflicts
referendum
deals
##ción
Julius
Mesa
Heinrich
##hart
cyclists
eventual
noble
wrestler
##ret
Ballet
Bishops
Saxon
Sudan
Theodore
celebrate
##dian
##ners
##die
##ced
tackles
transformed
##lor
Chronicle
hat
towers
Arctic
designers
Chemistry
Housing
Santos
onwards
Administrative
democratic
##core
Protected
discover
inhabited
1824
wore
Biology
varied
##hurst
divorce
register
retain
Sex
sleep
##eon
##ography
Institution
stolen
helicopter
punishment
Recordings
Rocky
mi
##abad
Uruguay
kings
Thursday
Karen
danger
##nger
random
survival
variants
Citations
freestyle
##BS
closest
contestants
personally
screenwriter
curriculum
lawsuit
reveal
Leipzig
revenge
Use
burial
##vre
messages
trio
Bach
congregation
targeted
Acting
##hoe
fauna
Monte
exterior
##hara
##uch
disappeared
MLB
Telugu
reactions
infection
##onia
rapper
##zu
Boeing
Access
Brook
Gospel
##quet
Canyon
hydrogen
performer
nominee
Re
Got
slavery
Saxony
pounds
Officers
journalism
BCE
stones
##art
altered
Meyrick
##ulate
deliver
##ec
riders
tenor
cuisine
Embassy
Fight
encountered
##ence
Or
Introduction
quantum
conducting
sit
1829
Grammar
provision
Rules
Dawn
##BC
honored
seized
collect
findings
gear
Marco
joins
Governors
Newman
Pool
Make
Superior
manuscripts
shifted
##rah
##ying
Achievement
Nottingham
oral
##ured
eat
Lebanese
algorithm
farms
Thames
corps
audiences
upgraded
Hard
authorized
Euro
scandal
Buddhism
allegations
##MC
Churchill
entity
Heavy
rivals
Kazakhstan
##sse
Lancaster
Murder
southeastern
LA
##01
expatriates
##ele
specified
suddenly
voices
##aux
rebels
Visual
terrorist
##itt
Victory
##cock
Yankees
##ast
1826
UTC
##roll
intermediate
improving
varieties
##ffer
nineteenth
staged
Moses
privately
varies
##rage
##ı
Minneapolis
1801
RD2
rulers
configuration
divorced
##pel
decrease
similarly
##vić
picks
##gas
Crawford
deeply
swimmers
##san
##ulated
pregnant
streak
##power
potentially
mathematical
ERA
eating
surnames
Harbour
naming
neighbouring
Impact
Guild
Archaeological
renewed
##eer
Paper
investors
Janeiro
mini
ski
##AS
logic
Basic
Logan
manual
imprisonment
utility
deposits
Singer
Walt
na
Rosa
educator
lift
Chiefs
##zation
enlisted
streams
Linux
relatives
servant
considering
hosting
##TC
##mond
##bit
##ents
##ats
Casey
paying
consultant
##CA
Heavyweight
concentrated
wheels
##rey
emerging
lie
Rica
enable
rotation
sight
knee
1821
pit
Maharashtra
##ison
burning
Large
parishes
duration
für
strings
talking
Ahmad
UFC
1813
valid
protagonist
##ox
Greatest
easier
Apollo
Indoor
tables
Ladies
Plants
symbols
quarters
attitude
##hen
Doubles
travelling
Streets
mathematician
sensitive
##SC
##nell
restore
##old
impressive
storyline
Published
Volleyball
##fied
##zes
Atlas
Karnataka
##iers
bassist
##ovich
Vale
heading
Johnston
Rican
monitoring
ruins
topped
Clara
Talk
familiar
Syracuse
Carnegie
skill
stability
##itive
NASCAR
Da
Sebastian
floors
Portsmouth
cotton
##vas
neutral
crashed
MS
witness
##ingham
panels
##AM
##oka
finale
nationwide
Georges
Ultimate
Watch
ordained
essay
##OR
Link
Hand
recognize
Southwest
romance
107
Graduate
guidance
hurricane
occasional
genes
Randy
##bie
armies
Frances
Sporting
construct
corporation
##tian
websites
Founded
shoulder
##phone
##nte
Indo
remix
cent
praise
attraction
nationally
Charleston
##wara
Counties
Ship
##gus
constantly
topic
permit
drawings
Flag
Raja
Slovak
##rina
Greene
delay
layers
##lyn
aerial
pale
Emergency
##ania
Aboriginal
NEAT
Norton
encounter
disorders
sheet
farmer
tomb
lectures
Leicester
##nn
##bourne
##rra
expanding
Southampton
feels
Yu
##bor
##graphic
Colony
colored
regardless
Dubai
theoretical
##ule
Anton
axis
Duchy
doctrine
Suffolk
##ages
environments
personalities
lineup
pink
threats
voltage
Lead
supporter
##ncies
Kosovo
Located
mall
Truth
theology
##uma
Madagascar
Roberto
diocese
missionary
Johns
vector
crowned
au
Lou
##ali
compensation
##cu
Bengali
Hip
Quarter
1758
Bruno
northeastern
##ques
hoped
##oto
##dic
Burials
Mann
##ctic
hamlet
motorcycle
Worcester
dynamic
strikes
##matic
Pink
favourite
##act
Hits
transformation
Vocals
##ifies
dying
wire
##lets
##nna
##TA
Blair
nicknamed
##makers
integral
practiced
Brandon
##run
Patricia
Adult
voyage
Characters
Supporting
particles
##ati
##hai
Jo
Tel
exploration
insects
##bb
optical
thrown
withdrawn
generate
properly
boxer
##ub
RCA
Pilot
Creative
assembled
##zen
carved
NSW
Baden
autumn
sequences
##long
Squad
Seminary
Silva
imposed
pm
larvae
wet
wickets
Herman
citizenship
learns
Image
accomplished
grid
Walk
vinyl
##oli
virtually
##nin
##50
##air
Marshal
stronger
Sandy
1810
Folk
push
blind
wrestlers
Jessica
##lash
Well
migration
tea
##11
Programme
pursued
##eth
##ssa
Search
entries
suggesting
watching
Stan
Montenegro
hybrid
##ifying
Mall
preservation
Michelle
hitting
Sara
specimens
Beautiful
Catalina
Observatory
prayer
workshops
item
##LA
Edge
noting
southwestern
Soundtrack
absolute
Treasury
defunct
sheep
Tag
transported
beer
aka
##rium
EPs
sacred
##graph
1818
hometown
##win
fraud
Reference
Cairo
Drake
colonel
preliminary
trend
##yama
Papua
Qatar
##ctor
Built
cult
##chy
##igo
beneath
solely
Vision
Zero
governed
phenomenon
capabilities
bell
occurring
shelter
Crisis
Photo
Dragons
jet
Thomson
Walsh
tale
##tain
##beck
Hood
HIV
Rao
##rts
Monument
Ho
Primera
caps
Thunder
Francesco
surfaces
##ement
Motion
Sacred
reconstruction
Shore
submarines
sunk
treat
hopes
Raiders
cat
territorial
Tribune
##kh
torpedo
Insurance
Traditional
terrain
Baroque
varying
keyboard
Highland
Palm
dancers
mansion
kilometres
Lok
refuses
Guatemala
fees
##FF
##nar
##usa
Tanzania
##ited
acclaimed
patron
portraits
HD
Scout
##city
Constantinople
currency
Pine
Hardy
Audio
Malayalam
developers
soprano
##iv
Sacramento
1822
Store
Agreement
flute
##ition
Solar
gathering
Jeffrey
fortress
involve
Vernon
furniture
intent
##une
Depression
railways
##pm
elimination
profession
25th
Marines
ammunition
Krishna
Quartet
Bridges
Underground
Forbes
Poems
ridge
##izes
Winston
accordance
server
##wall
Colombian
##ural
Latvia
batting
administrator
airing
ferry
Providence
essays
estates
gods
nobility
acknowledged
absorbed
interactions
1816
export
define
explore
cycling
Cowboys
NRHP
loved
deceased
uncertain
muscle
Jacksonville
twentieth
Industries
Joshua
##wo
array
observations
collecting
siblings
rivalry
Geoffrey
Troy
##RC
##lm
Charter
trips
OS
autonomous
discipline
manufacture
Jorge
interpreted
##boro
bench
doctorate
kinds
##tine
Tuesday
shock
Mystery
##nder
Structure
Baltic
killer
Concerto
Janet
acquire
proceeded
##alis
striking
synonym
##nian
Bundesliga
Journey
prey
fossil
Luther
endangered
performs
Democracy
highways
runway
songwriters
commerce
Aberdeen
stretch
##awa
bold
Jin
##front
Summit
Trek
Haiti
Maxwell
Superman
march
moon
intensity
##ground
bacteria
probability
missionaries
willing
Say
navy
Sally
revived
##hat
Moreover
Heath
UCLA
##CC
Chan
businesspeople
collapsed
Baldwin
colours
nose
Xbox
##zia
Cancer
Dreams
Us
lecturer
instructions
zones
##ado
##dent
Tracks
Any
assassination
consequence
impressed
interim
##ep
Santo
Psychology
##llen
ballet
sits
enjoy
##ail
1819
advisor
Romans
activated
tight
Beatles
Paradise
Languages
1827
Sugar
lessons
flown
CIA
Georg
Twenty
substance
##gated
publish
1809
CSS
Chad
rainfall
##HA
ballot
##gio
Wonder
equally
##AP
conversation
1823
Burma
monuments
expelled
##nto
murders
innovative
##zan
adoption
mutual
moments
Excellence
Indigenous
petition
##HS
Monster
uk
Too
bio
saving
Mail
academics
receptor
confusion
Morton
dozen
##eus
boarding
Dixon
##outs
suburbs
congressional
Gang
entrepreneur
Clare
Cumberland
depends
spectrum
Origin
regiments
happen
Subsequently
evaluation
Similarly
fate
1793
badly
2020
consequences
promotional
Ashley
Christine
mph
Myanmar
ITV
##nica
Philippe
preparing
strict
108
militia
wildlife
disabled
Constitutional
##ency
##aka
Issue
##DA
1806
Darwin
Swimming
Face
##zzo
manor
mysterious
Appeals
drives
lifestyle
subspecies
Rush
translator
inclusion
measuring
reads
Shield
clothes
dimensions
kitchen
##mir
Names
explanation
horizontal
conquest
##world
opposing
distant
mechanisms
Lisbon
##ista
Bulldogs
Portrait
settle
##nam
##lad
flora
proclaimed
upset
Word
rendered
Manor
Role
tribal
##ote
researcher
Bedford
Meyer
Webb
Sidney
##card
flooding
gastropod
separately
Bolton
proposals
##hed
##rge
lasting
necessarily
bowl
watched
Hampton
handled
massacre
bonds
formats
##RS
Making
shallow
Kane
diving
Venezuelan
##hua
Beauty
Czechoslovakia
Townships
##wise
##mis
##met
Made
Madonna
Jackie
Uttar
Very
aggressive
##sar
##ern
consideration
Nothing
holes
naturally
Fiji
convoy
Fletcher
Antarctica
##tate
enrollment
della
##ort
Potter
socialist
disk
custody
sponsor
Venus
northwestern
tag
##lip
Percy
Roland
sweet
##gence
offense
Manufacturing
Powers
molecules
##roy
Na
##EA
##cial
##load
Detective
undertaken
##IT
Northwestern
editing
##ution
1817
arch
compact
depicting
pursuit
##rrell
commanding
sky
Hon
desired
presidency
agrees
statistical
recurring
1803
Riley
##rush
genres
##ami
Rafael
tourists
##NA
##kie
Felix
##hard
##backs
continental
##gle
Timothy
##guard
Panthers
clergy
Fields
pull
Maya
Monica
breed
Confederation
hotels
rough
Terminal
Linnaeus
interviewed
##cott
##VA
##̂n
Carpenter
handball
lesser
##date
mammals
geometry
Nixon
velocity
vicinity
##ug
consent
##garh
##ead
Sherman
lit
##wen
orientation
##zon
Boris
grandmother
Volunteer
exhibits
Griffin
draws
##uro
Castro
renovated
cleared
Mohammad
##unt
##verse
Expedition
Strange
##elli
##vers
1811
customs
Angela
promise
1794
##18
Deutsche
Products
Seventh
Writer
alien
##ury
Garcia
condemned
assignment
Classification
Congressional
Marathon
feeding
conceived
vital
considerably
##hold
##lman
Taxa
forth
prompted
##II
##ET
Associated
Evil
1808
criticised
reservoir
sailors
##AR
habitats
Polbot
saint
Strategic
accidentally
112
Anniversary
curve
Sofia
excess
renovation
flagship
Erik
Jenkins
Kerry
inventor
##pen
argue
garrison
landmark
Recreation
Easter
introduce
Rise
computing
planted
rounded
Feature
breast
##SS
Beat
convert
recover
jointly
outcome
ritual
automobile
111
anthology
reader
##AA
Hermann
##hing
enhanced
Speedway
Gardner
rape
tobacco
##ost
##onic
##hand
unclear
##tered
Marriage
abstract
variables
Tracy
holder
INSEE
diet
eighteen
mills
Fe
strategies
synthesis
trumpet
##lice
Rain
withdrawal
rally
skating
Laws
Tax
surgeon
##urt
accidents
##ake
hull
##gg
considers
toll
Joy
##dine
Pablo
##aging
Chi
Fr
Mad
membrane
##uka
##igan
Nicolas
vegetation
bankruptcy
blocked
Davidson
succeed
united
Origins
implement
Sanskrit
kids
suburban
broadcaster
reconnaissance
Aviv
trainer
rebounds
1790
companion
ATP
investigations
##ptic
circa
dressed
struggled
Want
lover
Trevor
Apart
Evening
Flash
Helena
Oriental
dinner
agreements
directions
Winchester
delegates
egg
Cecil
Osaka
Sub
monks
Italia
physically
Kirk
Zagreb
doubt
instructor
decreased
servants
physicist
raw
relegation
Sicily
discussions
detective
mineral
##gra
premises
guided
##nza
Dylan
Trial
acclaim
aftermath
mechanics
comparable
##AF
##rata
Hawaiian
unanimous
speaks
Drew
screenplay
##base
WWE
destroyer
grain
thermal
##rst
Cherry
pace
teammate
scattered
Dec
enterprise
cream
estimate
##rose
Similar
consensus
fires
poorly
Alberto
Midland
certainly
cameras
estimates
peninsula
Ana
Stuttgart
bulk
##ever
Smart
predicted
##ude
mouse
electronics
Webster
aside
Stefan
inaugurated
Cologne
scorer
Floyd
Horn
Hour
measurement
##MP
109
contestant
Belarus
Photography
Travel
advised
reserved
##lage
Cave
##chin
1804
Te
chest
copyright
##uru
115
Border
Chennai
Applied
Augustus
Northeast
Braves
UNESCO
Kiev
##ered
Icelandic
##16
Bergen
loyal
Berry
Carey
Ferguson
Midlands
cello
remarkable
taste
Progress
##cious
CBC
##illo
mature
barrel
obvious
underlying
Neill
Ms
1805
wait
Shirley
spotted
##ically
Alexandra
snail
vulnerable
Freeman
Patriots
rebel
##az
##inus
repairs
settings
##0s
##ID
##oa
##itation
##rov
truly
marking
veterans
##birds
Helsinki
Mickey
ancestry
catalog
Exeter
None
Colleges
feminist
log
##и
referee
1796
Verlag
Middlesex
propaganda
translations
destroying
oak
1798
Runner
pollution
nationalist
##face
Task
Coleman
Reagan
bore
rankings
Behind
Prof
den
##15
Beck
edges
fights
graduates
##ED
Viscount
attract
wake
Bucharest
hypothesis
Chapman
Gas
limestone
Comic
1807
Agent
FIBA
##nde
##sco
Worth
bombs
seal
##rator
##ook
lease
legally
Actresses
Rebecca
1789
1795
Text
planes
##tism
##̄n
skiing
##ennial
##gic
##rma
Hartford
healthy
##uation
Phase
archives
rescued
##star
String
##mates
##uer
governmental
##pot
Kiss
raids
3000
##dd
Marsh
knocked
Animation
Boat
tackle
Swan
##IA
Tucker
##30
##band
##ogy
committees
rushing
##dell
Foot
##vich
##fo
stepped
Lankan
proceedings
Boxing
IX
crucial
Toyota
cluster
commercially
spelling
Empress
Pierce
millions
trails
##ave
##mos
##rna
Auto
Roma
semifinals
##lant
##dos
Composition
snake
tactics
##ops
operas
priority
Dodgers
##hausen
prohibited
recreational
cool
##IP
Joyce
monitor
Battery
Newark
##ppa
Deputies
##sal
Paralympic
emigrated
##ume
IT
cartoon
##RT
depicts
Android
Given
Territorial
calculated
##oss
##owski
Reds
geographical
monster
Outside
Sixth
finite
Vatican
commentator
batteries
##lton
Ram
neighbourhood
##ked
proximity
##enberg
##grave
##mill
##ichi
García
sustainable
Cubs
scales
Wave
themed
stake
##cking
##ulus
Color
##ouse
##mbo
##ash
Rising
Tell
Kolkata
Cheshire
Irving
illustrations
Auburn
Chang
##rik
Toledo
withdraw
##stown
bills
salary
minimal
##iate
Jets
Johannes
Engine
##á
##cence
##lls
marble
Hammond
rises
Episodes
Cambodia
armor
bones
consciousness
demonstrate
trucks
disputed
##lk
Cloud
##sel
gates
purple
Downtown
Giuseppe
directing
Tunisia
rookie
Adolf
allocated
distinguish
electron
foundations
LLC
Wong
##ike
initiatives
terrorism
arc
navigation
responsibilities
##40
Sharon
basement
depot
Insects
Lambert
consistently
seeks
facilitate
workshop
##cc
MVP
boxers
slopes
tune
##13
laser
tension
Organisation
barrier
humanity
Telegraph
detection
##lal
##tones
supervision
Plus
##kawa
Jam
ghost
horn
##rrow
Ferry
Loss
allied
errors
Tonight
##DS
##eck
1792
indie
throwing
sends
Sutton
Xavier
##FC
Acts
trick
tailed
Author
##tail
escort
##bers
Pearson
senators
subfamily
sudden
##wear
Gibraltar
Kuwait
Rescue
Wimbledon
preceding
conspiracy
hub
philosophical
##NS
Pride
proceeds
##sure
op
removing
innovation
investigated
##gun
arguments
dense
differ
deployment
foods
lengths
loaded
coin
Architects
Era
135
voluntary
Amanda
Stop
##14
##ów
Sanders
filmmaker
politically
Hop
im
particle
Previously
##pal
Patrol
Joey
Broncos
dealt
Reverend
Coal
Governorate
demo
proportion
shield
accuracy
emissions
##rice
1802
##nock
valve
Ming
achieving
apartments
##ump
##LS
Sometimes
##rating
induced
inland
merchants
mate
##most
Ricky
Viking
categorized
##ip
laps
payments
publishers
questioned
Angola
spelled
##gation
generic
Leigh
Released
##yang
Belle
Neal
Trans
Rule
Hannah
bow
entities
facts
respected
##ield
averaged
bomber
Tank
Georgetown
Mayors
Strong
Geographic
SA
Attack
faction
favorable
Bombay
##yle
Cameroon
gray
missiles
tallest
Hearts
Titans
objectives
##mination
Communities
PGA
costume
specimen
##iva
Qualifying
Whitney
gameplay
ha
Performing
nights
##ores
Everything
wishes
Look
Ranger
##pted
Nordic
##FL
##IN
##ried
450
Sophie
surrendered
maker
trophy
fed
##croft
128
Boyd
cooking
shed
##zel
Albion
Europa
consumers
embarked
flowering
counts
##olo
Bryant
Waters
ceremonies
Di
##the
1799
imported
##vel
elderly
openly
##bes
Afghan
Rudolf
Figure
loans
Forever
rubber
vacant
##AL
coordinates
continuously
##ologists
Fashion
##px
##rop
León
lord
secular
Scots
Vikings
demonstration
Parade
Schmidt
elaborate
Antoine
Caesar
Judaism
Macedonian
Papers
boyfriend
##mma
Collections
delegation
##19
Trent
fortune
philosophers
Honors
bicycle
circles
finalist
longtime
arose
bounded
##cat
Brigadier
Seeds
knowing
Gloria
capability
Honda
Patterson
Giant
examined
##uff
Academics
facade
Better
##dus
spacecraft
Clyde
Homer
Property
##kas
Lynch
memories
##int
Alpine
Paraguay
balls
##word
solve
certification
##WA
Andreas
collector
Inner
creatures
clerk
##kal
altar
butterfly
unsuccessfully
##ische
Conrad
##SL
Eva
elect
spite
##ives
dollar
provider
ceiling
protecting
tickets
Carr
iTunes
##rome
graph
skiers
##rot
Areas
##lity
MIT
##̃a
explored
Matthews
pack
respond
Wei
##zie
##keeper
Gujarat
unveiled
Jun
##kha
Bangkok
develops
notion
successive
Jerome
Savage
preventing
##pass
Pole
Wikipedia
##wal
rolling
Marketing
Siege
speeds
Own
admission
walks
Leone
Lorenzo
dialects
autobiography
Drug
##place
Norwich
reflects
Honduras
correspondent
##bby
Riverside
Shane
controlling
physicians
Libya
los
publishes
Lives
Qing
harbour
auction
Philharmonic
Stand
artifacts
isn
##uts
Tibetan
mosque
Browns
complicated
##yman
planets
accredited
Bronx
##liga
Mi
Nash
Clarence
goddess
reliable
##tie
casting
nursing
René
cyclist
invaded
slot
##cian
Kay
Memory
judgment
Disc
Evolution
Peruvian
battalions
##AT
Bates
Partners
##ib
Arabian
fail
nurse
Unknown
diagnosed
passion
providers
Superintendent
Un
holders
introducing
liner
organisms
rider
squadrons
Mercedes
Tunnel
Monuments
licence
##bee
pipe
overcome
counted
responses
enacted
##vian
airfield
believing
##rica
dishes
Lindsay
continent
##fen
premier
Katherine
acceptance
gross
luxury
shirt
##nta
EMI
Lima
Rey
Yard
##ographic
Nina
##logists
##sus
Galway
Lang
trailer
##foot
Constantine
celebrity
Ski
font
photograph
Bang
conviction
##ς
polo
Beast
Meeting
lock
Recorded
##SE
disputes
rectangular
##tant
##books
realizes
Crew
adds
contents
##irs
Investment
##iance
##ination
Internal
absent
Strait
violation
##⁄2
Jenny
MHz
Slovenian
loose
prominence
##mouth
Glory
Marina
Mohammed
lots
Etymology
SK
endorsed
##rier
CNN
Carmen
quit
##erly
##name
adopt
Choir
proven
interactive
loves
perception
UCI
Elena
Rainbow
obtaining
##nu
sectors
cloud
Andhra
highlights
##qua
lady
stint
Diane
Gandhi
Willis
Event
Nov
branded
carriers
contracted
##е
##duction
strange
Thing
##tina
galleries
Crazy
Hastings
unlikely
##ows
Clube
Produced
chains
smoke
##LC
fusion
##ishing
Barrett
climbing
##ère
##ín
intact
invitation
Carlton
Ronnie
presenting
pupil
fragments
##17
##ión
##ON
retire
Initiative
##tai
Hyderabad
availability
yield
Matches
acids
Mining
Shiva
##elle
marketed
maternal
##dder
Rams
Taiwanese
trapped
##α
fiscal
machinery
Hyde
challenging
Unfortunately
Galaxy
councils
Ham
addresses
##gos
masculine
Calcutta
mirror
Decision
economist
Yuan
skilled
transform
Electrical
factories
Maps
Valencia
accompanying
sacrifice
attractive
##ull
careers
liver
cabin
angry
##rr
Hours
equations
##icus
Kashmir
Plains
Kannada
Noble
Intel
charted
climb
Tehran
Virtual
Lin
canton
floating
organize
Erie
Shannon
verses
##pet
1880s
auto
Arlington
heroes
##ined
Practice
Johan
likes
##án
##dre
##gent
##hia
garage
steep
170
Ethiopian
Oct
rings
##smith
Holiday
eagle
revolt
##yas
Card
Chambers
hectares
schemes
##lish
1776
Porto
neighborhoods
derives
##nne
Agnes
Appeal
modes
swimmer
##leigh
Aftermath
Bo
governance
Stoke
certificate
invested
Civic
Sites
Wesley
Madras
##bis
Gastropods
Peterson
beings
lung
offs
posthumously
Clayton
Emirates
Sinclair
holy
grammar
220
Alps
Buddha
##play
Collegiate
Latvian
abbreviated
crop
wingspan
Footballers
Gloucester
advancing
exercises
critically
cruise
feminine
Electronics
doctoral
1797
Eden
Elder
Teaching
pub
Landmarks
leather
Penguin
sizes
couldn
Settlement
parameters
##urg
Coventry
Fast
commanders
equity
valued
declaration
advocacy
advocated
conquered
saints
##iss
Midnight
##US
Mick
differential
pastor
nest
Bulls
Dover
heating
##enburg
##rton
ultimate
##acing
Noah
recreation
McCarthy
recommendations
volcanic
##rous
Almost
Tobago
Animals
##pton
Mathematical
Quinn
jumping
resides
##rel
Yet
epic
complexity
Applications
Yemen
##vor
destroyers
flowing
113
Bahá
Phillip
##bro
Brand
Cotton
commissioner
Mongolia
gravity
##llie
striker
accounting
##berger
Peters
witnesses
Features
USC
##EP
Satellite
##̈r
Fischer
##logue
Charity
##lled
leased
##lake
Benedict
happens
Rally
keeps
searching
##opus
flies
Weather
arguing
Programs
lanes
preceded
Broken
##iff
crews
Drums
Famous
Canberra
boxes
##eng
Dudley
amendment
##rden
Brett
Du
eliminate
organizing
##eva
quiet
##cript
divine
Prairie
smallest
catalogue
sponsorship
testimony
##fold
Bermuda
Trio
operative
puts
console
coupled
seemingly
subtropical
Named
complaints
refuge
Cliff
reinforced
Clinical
rent
Airways
Wade
terminology
Reservoir
reunited
Classics
RNA
harm
##oke
Basel
lateral
Canton
enhance
##itis
Donna
fails
##tures
projected
trap
opinions
Close
Kill
Timeline
impression
mandatory
##hler
Clubs
Romance
donations
airports
defines
sketch
compatible
parade
Standards
backup
pianists
resolved
##teen
Des
decree
Ensemble
asteroid
hiding
surveillance
##sters
Omaha
Summary
secretly
newer
spy
dimension
##dt
Rider
equality
reasonable
Dawson
enlarged
dropping
50th
##gie
Buck
sixty
Journalism
makers
Motors
Nielsen
unofficial
lecture
pen
protocol
##ffe
Carson
threatening
unity
contributor
platinum
##MT
##baum
comprised
Rod
Benson
##rial
BA
Blind
interference
##mit
Taipei
Wanderers
##rg
Hank
Negro
##vation
##form
illustrator
##ée
Leopold
Turin
whatever
outlets
invention
remember
skull
##combe
En
Investigation
bats
5000
Dresden
Manual
odd
pine
##sive
##umi
Veterans
hostile
Sheikh
##oh
seating
Mikhail
Tibet
##atus
Barton
correspondence
##aya
aided
alpine
maritime
possessed
##ices
algebra
viewing
charitable
reopened
witnessed
Valentine
senator
##pis
##grapher
Jules
##version
Died
sail
##rion
Wolfgang
healthcare
##ient
chassis
##ust
beds
highlighted
##MI
##GA
##cens
Feb
screening
fossils
hanging
locals
portfolio
measurements
Theological
civic
##iidae
114
Dee
MC
filmography
##mere
Buddy
pregnancy
robot
Ain
117
##idge
descended
sank
stick
Slam
bombers
Antwerp
insisted
##nch
##nity
##lane
Hurling
accommodation
strictly
Holt
Waterloo
##ndo
Glacier
Nassau
pitchers
Paramount
sick
Commodore
diagnosis
Credit
liked
##haus
Tactical
##mmy
Gates
##ots
Marcel
assume
Theme
Traffic
bordered
flee
##CE
##iga
Genesis
Tulsa
##any
##lling
trace
Jesuit
Lopez
Mile
wartime
##metric
Eleanor
IF
Cars
shells
Neo
lacked
linking
strain
Dundee
Hawks
##ister
##piece
beta
##aj
Malay
sitcom
Beverly
Corporate
buying
crater
Jung
Nicole
parody
##fort
##num
PDF
Trees
##ello
Rex
##ndi
Illustrated
extraordinary
##case
immigrant
wound
##haw
##lick
##ncing
Images
Randolph
Elisabeth
classroom
determination
Scouts
drainage
##nick
Flemish
Gustav
##lov
Clifford
##ulating
1890s
##cts
Ride
walked
##lina
##rable
Stations
coloured
240
Goals
atomic
bowling
López
Rebellion
##aga
##nate
Bologna
Reports
##vsky
Dwight
MW
PBS
Slavic
regulatory
possess
##sser
detected
educators
González
busy
swing
Entry
Innovation
##lings
Legends
##iness
1791
Mirror
Payne
##ough
Coming
Ibn
terrestrial
totally
Duchess
##pia
Rouge
Publication
Hanover
Torres
##EF
torture
Written
halls
##iki
tubes
enclosed
risks
Josef
traces
fruits
storey
Roster
Hesse
Archdiocese
Elite
Facilities
app
Catalan
Fritz
interrupted
comment
Gloucestershire
bout
##grass
Dancing
##gna
##lder
##lier
Rama
inception
convince
pottery
##mb
##о
slight
##zzi
sided
Wheeler
Ricardo
boom
embassy
##eta
##hir
##rne
Coaching
##̈n
Handbook
##eil
cognitive
promising
##etic
Lucky
staying
lab
loyalty
slope
##rock
##thi
explicitly
nerve
Lance
anywhere
gains
Werner
portal
enormous
##SI
30th
##hips
Corner
hide
1780
bigger
governors
ancestors
ton
##ema
24th
shrine
tongue
##lene
Berkshire
fitness
##oc
Klein
revealing
teaches
lined
Activities
Shop
localities
mentor
remake
riots
##writer
Ambassadors
Priest
Uncle
diamond
Bangalore
quantity
batted
noticed
##pu
abortion
columnist
Sharp
##CS
medalist
min
##NG
Wake
Standing
Parsons
profits
##psis
Raj
Sue
cheese
Pioneer
terminated
Nord
##nor
combining
evident
Coaches
lighter
##sworth
GT
Howe
##zong
Beth
NC
advances
dreams
##DC
geography
##rea
##́ski
Travis
Treatment
##oro
Salisbury
deer
expense
worse
Marx
Letter
Ruby
Tudor
extant
##rix
contacts
dome
SEC
##gawa
Christina
Williamson
informal
update
narrowly
##ode
lens
##ously
##tty
Frontier
Hal
Rita
##chus
##wich
Mayer
Munster
geographic
qualities
thinks
Maple
blow
##pic
alignment
dining
##nae
Autonomous
##cise
applies
acute
competitor
humor
inning
Tale
##ault
##body
Benny
ore
##nova
Cedar
enabling
##tly
fur
listening
Bahrain
##iser
delegate
dragon
requests
Quest
Synopsis
reviewer
Mayo
incorporating
Screen
123
Higgins
Quality
frames
Interest
Purple
incomplete
modeling
##ante
##uo
masters
upgrade
##nagar
avoided
Atlético
Den
amino
Corp
##02
##flow
Apostolic
magical
##tric
##yon
Dana
Cherokee
wireless
trafficking
excluded
coordinator
intelligent
Something
urged
everyday
Catholicism
Semifinals
ignored
Bright
creek
sphere
billed
Doyle
Multi
Nigel
starter
##ech
Sales
Unity
loses
##ivation
##ob
##pped
gather
Relief
constitute
keys
##pole
consecrated
infant
presumably
##TS
Bulletin
Noel
astronomer
fabric
##etti
##ía
TKO
suffer
Weber
##й
wished
##nse
##quin
Soldier
transmitter
cameo
Warwick
116
Known
Rookie
##making
celebrations
transmitted
IP
penalties
instances
##ota
granite
Dorset
auxiliary
encounters
monk
substantially
##sbury
Fleming
Nursing
pretty
decorative
inquiry
Lafayette
supposedly
Countess
Opening
Alfonso
Romeo
statues
Augusta
Monaco
destinations
termed
partnered
##ored
Divine
corporations
knockout
Judy
Latter
suspect
##person
Zoo
MacDonald
Normandy
screened
tends
Autumn
capturing
cyclone
naked
Resolution
Reich
##avan
Singers
brass
commit
Cable
cooling
##osis
Lexington
lifted
scholarly
Mack
excessive
Ligue
freshman
consulting
##DP
Reviews
minerals
pension
Battles
Blackburn
##gram
##mme
Nazis
Plain
struggling
fake
##rim
freely
corn
tales
##gu
prizes
##TE
##fect
AG
collision
expertise
Animated
Assam
##́r
Sprint
bread
est
routine
loading
professionally
##polis
Cycling
##rno
Rahman
##life
##uta
1788
Algerian
realm
Below
Pratt
##eed
Swift
practitioners
trans
tracking
Evangelical
wage
Split
specially
##park
triangle
##The
##gren
Direct
Shooting
Mormon
Running
prosecution
Phantom
Tate
Teacher
ethics
Judith
Omar
##hof
Lepidoptera
creature
Ace
religions
Wilderness
cannon
proceed
##sby
Rear
shortened
binary
##hire
Derbyshire
Ji
uprising
Welfare
communicate
dynamics
warned
crystal
colleague
Capt
placement
struggles
undertook
Packers
peaceful
##AN
##page
##ander
##walk
Lab
exceptions
Irene
utilized
peaking
##link
##tock
Mo
resembles
##course
Declaration
Mt
Turks
##lian
Teachers
rap
118
theaters
investments
##log
##rries
Byron
Cove
Credits
Mohamed
fault
thoughts
Form
Pérez
Samoa
Seymour
chaired
dust
decorations
republic
Knowledge
Wine
wards
175
Hawk
Simmons
Circus
Hassan
dish
##lights
Bihar
Interactive
Parkway
##wave
Words
##own
Conservatory
Rapids
##rl
##̦
121
Vocal
mask
Clement
Mets
Teen
effectiveness
Devils
teachings
discharge
Fly
Cash
Flanders
bike
pageant
##dox
122
precise
Factor
explosive
generating
guidelines
##tical
Angelo
combine
Gone
decoration
Barker
cruiser
metals
119
module
Moss
reprinted
Holly
##ais
installations
affecting
##gma
Val
127
Ki
1783
plantation
annexed
strongest
##cribed
Barbados
Casino
Baghdad
tough
##lent
##rious
##uy
Guru
tonnes
##nap
Gill
celebrities
locked
prolific
##ended
##lysis
Russians
dances
infected
Andre
revenues
##ame
##heads
complications
##NP
##oning
Nice
narrator
Sunderland
mild
stamps
AB
advisory
phases
differs
##itude
GM
Ethnic
Livingston
affiliation
systematic
Mozart
NYS
finest
forum
Fear
Regina
harsh
##lby
Highlands
##hol
Vic
Falcons
attributes
ease
quantities
thirds
Allison
Fan
Camden
Humanities
Sterling
##iner
Sword
analog
##ily
marathon
IEEE
Mini
Shepherd
default
legitimate
replied
sandstone
tender
Plate
Playoffs
Teresa
wicket
##uga
Steam
regulated
Dunn
Tribe
demanding
Going
freshwater
Canon
Hague
##lating
##tana
Jupiter
distances
gaming
##lem
Permanent
Restoration
##mian
Hansen
Wiltshire
chronic
Stalin
sometime
persuaded
valign
AAA
Monastery
livestock
##AD
##not
clips
pseudonym
Perfect
appealed
damages
hunt
immune
reward
##rz
1⁄2
Isles
##ava
Cunningham
Ibrahim
Knox
lunar
tiny
wheat
radius
resemble
##uous
paths
tunnels
##pies
##yr
Sing
Steelers
employer
modest
Biblical
##lord
explaining
violations
adventures
countryside
folded
organs
shipped
tactical
Promotion
uniforms
Archaeology
##vie
Tan
Friend
HC
Technologies
Suite
École
playwrights
commands
counterpart
hoping
miners
##shed
Gerard
Shopping
reversed
tendency
sentences
Barack
kicked
rifles
##sberg
Christchurch
Gazette
Rivera
##rid
exam
expectations
Brain
Rodriguez
councillors
stems
##ald
##cco
carriage
teamed
##nese
Bottom
investigating
Greenwich
encoded
AS
disciplines
preference
##mu
Standings
imaging
##nas
consolidated
##lles
Epic
coined
integrity
Lincolnshire
Magazines
##rva
##я
Cretaceous
Molly
Worlds
carefully
##HC
##rai
##stan
Basque
Per
financing
similarities
##beat
Airports
Twins
applying
Active
Translation
par
verb
var
##eration
##mology
determining
fatal
resided
sprint
Resistance
Stevenson
##rf
Brady
CR
Manning
disability
implies
photographers
##EN
Karachi
descendant
optional
trademark
plaque
##rle
Coastal
Hancock
interact
domains
Germanic
Strike
broader
technological
##dio
23rd
Merchant
##ises
##rew
Lo
Opposition
resign
launching
mount
Reformed
prints
stopping
##lide
##graphies
##zone
AT
Related
curved
bag
constituted
Sutherland
reflecting
dealer
##ovo
Moroccan
Greeks
Mel
Myers
gifts
reformed
##iest
protesters
duet
mollusk
prevention
##mura
Jamaican
detect
identifying
##coe
##ond
Tomorrow
seasonal
##rist
##tres
##PC
clarinet
##iant
##pool
Associates
Madame
analyst
attained
banner
rely
woods
Recurring
Thirty
mistake
prose
Lily
folklore
Lyrics
##inal
Lightning
##cene
##raj
Mechanical
Fu
##uin
lacking
Honour
Catalogue
Kurdish
publicity
Resort
##lex
Kai
commemorate
dorsal
acre
Isabella
Citizens
Preservation
garnered
Vista
##tier
overview
pioneering
Belarusian
Rapid
##mans
pump
Variety
Period
sculptors
##plication
CF
##adi
Riding
Broadcast
approaching
fat
feedback
peaks
Colts
Companion
##court
##onies
Shri
Hundred
spirits
talented
##type
Christie
Lennon
Oval
Quarterly
Von
Walton
ally
##kis
Millennium
RFC
classrooms
rocky
Goes
Havana
Carlisle
Courts
Dodge
marched
##pha
Namibia
nervous
##ense
Somalia
finishes
seventeen
sings
Automatic
Northampton
Phillies
Anita
Falcon
Smithsonian
expenses
Experimental
##lore
Jacobs
OF
##ature
GDP
##atory
1600
Often
Rodríguez
##tron
##dez
##eal
Stones
##quel
##ivo
Sunshine
Wolfe
swept
##psy
Islander
criminals
##lau
Holdings
beside
detention
##print
inscriptions
snails
Consequently
teenage
postal
Lifetime
Novel
##dicate
monarch
##inda
##ptera
Archer
dissolution
teenager
##duct
Gaza
incorporates
##mber
##sty
curves
inmates
rpm
##bet
##ggs
Midwest
Oceania
##yun
22nd
Pasha
brilliant
Jennings
Lahore
Intermediate
Mansfield
Clan
Warrior
trilogy
Marcos
watershed
Fortune
XII
bits
##ades
Geological
##cre
Emmanuel
institutes
Nicaragua
sovereignty
Conway
Lights
commercials
deity
##laws
Into
compression
fiber
spreading
Yi
descriptions
ear
##rer
Abdullah
intensive
Booth
defeats
limitations
twelfth
Calvin
Hawkins
offshore
##iling
##vert
Gil
Randall
enables
pursuing
##ef
##lma
shaft
simulation
##nium
kit
linguistic
##03
flash
Flower
Weston
remnants
##lade
Griffith
explorer
Laurence
blamed
info
warriors
##PD
modifications
torn
##̂me
Ferrari
paved
1787
Hale
Save
Burlington
overtime
Flowers
cloth
Dogs
Domestic
Mercer
irregular
surveys
Edith
##60
##ologie
##test
burn
Yes
migrated
Chandler
##iation
##take
Aston
atoms
unemployment
Harlem
loaned
Abbott
Aurora
Twelve
aunt
favored
##race
engaging
surprised
excluding
Allmusic
mere
##ido
Rather
##cine
Passenger
##rde
##yx
PM
Perkins
embedded
phrases
sued
124
Ever
##EM
toxic
Afterwards
additions
exceptional
##riya
Forward
Wendy
chemist
##hima
##nay
Seth
Staffordshire
mapping
wears
##ulent
Universidad
##kel
##tts
IRA
unnamed
Stirling
##text
TD
##bahn
##yam
Kyoto
Ash
Frost
contrary
spectators
Allies
sanctuary
ups
weakened
##mara
Give
Paolo
Resource
aesthetic
fever
yearly
##tman
Belt
Geology
Sur
retaining
Math
humanitarian
receptors
spare
derivative
realize
Zürich
Olivier
##oda
Lorraine
Fitzgerald
Limerick
timeline
Mental
algorithms
opted
originating
Ecology
Augustine
melody
##som
1777
finger
Württemberg
Brooke
Müller
##rite
##tist
Voices
mathematicians
##lement
Brent
IL
adequate
##ym
Ceylon
Essays
Fuller
Gould
Marvin
Mosque
Signal
highlight
wages
suggestion
Ave
ecclesiastical
##phere
Step
securing
Ranch
wounds
Hobart
ancestor
##ht
Mk
cultivation
emotions
Core
Sonic
Stern
Touch
##ME
Experience
Listed
choosing
Monthly
freed
##writing
##cin
regards
##oll
beats
inspection
repeat
suited
submit
Elvis
##aro
Moldova
Yan
##rade
##ush
knife
pocket
shoots
##ining
Depot
filter
roller
##CO
##ache
##lding
Kerr
powder
steady
hurt
##ams
##ass
145
Poor
Programming
Cerambycidae
Garrett
Stafford
incorporate
##rooms
ID
Raw
steal
Congressman
flank
philanthropist
##lius
monarchy
speculation
traced
##eu
##hou
Alison
Sandra
il
accepting
##af
##lson
##mission
Stephens
drag
Bruins
Greenwood
demolition
sovereign
tasked
whenever
##uge
##yar
Mans
Segunda
Wife
dozens
##lessly
Genoa
loosely
silk
Jakarta
##ciation
Heather
Urdu
##hes
Dayton
abbey
bred
shoes
Cannon
Judges
pistol
traits
##tting
frog
Saturn
Reilly
Sega
filling
Criticism
HBO
Leading
Polytechnic
albeit
switching
##bian
processor
##OM
##kill
Arrow
##dler
##mps
palm
rehabilitation
villagers
Idol
sworn
##grove
Bills
Rodney
Royals
facto
##titled
Shi
evacuated
##houses
##ilt
Miranda
Lauren
htm
##wes
Steele
Senegal
eleventh
Ka
Rhythm
##lah
Ha
Horace
Wigan
lighthouse
Paula
documentation
springs
employers
##chal
Row
feared
gospel
syndicated
welcomed
Shire
Browne
vegetables
FCC
biblical
##dated
Cover
conventions
Presidency
guy
holidays
##cke
autonomy
Bend
Citizen
Elliot
Verde
capped
outcomes
phones
##mina
Bart
##ility
transfers
besides
Platform
Terror
##uda
Sanctuary
Isabel
##rap
mandate
Igor
Macmillan
Multiple
Sonny
Workshop
##igh
650
Suzuki
Shell
nevertheless
Europeans
SP
##llis
Wildcats
anger
pin
Mega
##rill
##yre
Admiralty
choices
harmony
ion
momentum
Labrador
Hook
Subdistrict
Natalie
Northumberland
constellation
landscapes
nave
##oth
Easy
Eduardo
dedication
irrigation
progressed
##dad
Cal
correctly
lengthy
alphabet
##of
##zio
Theology
trustees
Vanderbilt
symbolic
Reformation
Tai
##sten
Runners
survives
##OT
Campeonato
##̊
suite
vowel
memoir
##kos
Wide
Witch
##vier
##tree
reporters
Plays
chase
Zambia
adviser
strengthen
Lester
abundant
chicken
kidnapped
owing
participant
settling
Johannesburg
##bat
##dley
##eg
##force
##mum
decommissioned
sponsors
teen
##uz
Aid
Founder
occupy
Painting
Disease
defining
##mith
1781
Luigi
accepts
Mozambique
imagery
lunch
saves
##quez
Arabs
Sen
Vaughan
isolation
##fy
Infrastructure
reduces
Bosnian
nationalism
clusters
demonstrations
encouraging
##keeping
131
Cannes
##hem
forewings
##eek
Expressway
Historically
##icing
Jubilee
Session
Mouse
ceremonial
chemicals
gambling
##shu
Hanna
backs
teammates
motto
##mount
Zhou
canceled
Colombo
liberation
Need
Schneider
advocates
comedians
Said
deliberately
paired
##ares
Hammer
##uli
Indeed
Operational
employs
rows
##ending
Goa
Rotterdam
collegiate
mascot
##dition
##father
##iac
##rash
complained
129
Bert
Silent
##rod
##weed
230
corridor
133
##IM
##uki
165
190
Bowie
Combined
discussing
pour
princess
purchasing
rides
##bone
Beirut
Turn
##́k
Beta
patch
##nding
Uruguayan
homeless
moist
##mbe
civilization
Gods
blade
##shore
Emerson
barely
underwater
Darren
escapes
textile
##bol
1774
1782
introduces
villain
beaches
breakdown
1784
DOS
Downs
Territories
Pius
healing
readily
shapes
surgical
toy
McCartney
Vince
canvas
##hot
Aug
Hey
VFL
communes
cultivated
specializing
recommendation
statute
144
Fowler
Horror
decisive
exceed
Gran
Marty
Units
dramas
televised
designing
fold
scrapped
trends
##boats
##eda
Bavarian
Olivia
frontier
helicopters
Cry
residences
##rda
Did
biographical
motivated
##mie
##unch
1870s
Heidelberg
Niagara
Sophia
combines
email
Maggie
counsel
##par
##ril
Certificate
advantages
dean
undergo
##night
transactions
handful
rat
sleeping
throws
Qualification
reactor
Movies
caves
##imo
Berg
stance
theological
evolutionary
ideology
primitive
Ex
Talbot
Vera
specification
Established
strips
Dirty
1778
Dynamo
Immigration
Killer
##lidae
Oman
answers
pressed
unidentified
Jury
keen
Lionel
miniseries
trunk
Alain
Nationalist
##MG
210
tornado
##fields
##oria
Chamberlain
Normal
Stein
XIII
complaint
##̌ić
alpha
campuses
comeback
soils
##cket
Macau
Min
Patriarch
##bey
Rotten
deeper
plasma
Marxist
employ
monasteries
tumor
##GP
##iano
foster
innocent
sacked
##ators
##hole
132
MGM
Privy
abandon
inheritance
##aceae
peers
##21
##aud
##lusion
126
Stephanie
contacted
functioning
##oor
unreleased
Employment
LONEOS
flexible
mastering
purely
Treasurer
bias
divide
doubled
Leaders
Routledge
bypass
eaten
##won
##jar
discography
Different
Goodman
compliance
succeeding
##fu
##ood
modification
realistic
Finn
Hence
Kraków
consequently
##rds
matching
unified
Okinawa
ambitious
anonymous
displaced
##nham
Blu
Holden
Majesty
phenomena
##kon
##udo
Hay
SF
##post
Koch
##erson
skaters
##gee
##nds
##rand
Sigma
molecule
motorway
rays
Robbie
Scholars
Swansea
##tead
##wang
safely
Devi
Driver
Evidence
Magnus
Pond
conductors
hiatus
##ues
Lagos
Preliminary
Think
Trustees
precipitation
tract
##rail
Shin
##cter
nucleus
banker
encompasses
protective
##iled
CT
ensuing
regained
sealed
##qi
##vey
Greenland
batsman
presidents
##lining
Cool
resistant
##OL
1200
Wakefield
admiral
transaction
##eka
Barber
Landing
consumed
##ija
##lization
Daniels
Sonata
competes
coordinate
##rita
Borneo
marker
subdivision
pleasure
cooperative
lesbian
##witz
lion
masses
whereby
Beer
Renault
static
##cked
##ctions
1763
Auxiliary
Pike
financed
supervised
##ady
laying
math
rush
smoking
vacuum
##kara
USD
collaborative
mud
polls
Crosby
pound
##32
UC
##yk
Libraries
Sergei
uranium
Neville
heated
miss
Laos
granddaughter
valleys
##BL
Castile
depictions
##ttle
##asi
##dog
anticipated
overhead
townships
##eum
Donovan
Jensen
canon
##fly
natives
promotes
1900s
Jonas
Jungle
associates
hp
##nstein
Luna
instructed
labeled
##ink
reflection
##rom
Jill
quartet
fuselage
##bine
Hit
atmospheric
mortality
Tyne
observe
##ager
##far
guaranteed
Haute
##cliffe
Austro
##04
nitrogen
##xin
Brandenburg
Lu
Punjabi
rushed
##SR
##media
Fun
synthetic
##anus
Alive
Managing
Proceedings
interred
treatments
##24
##rell
Raven
metro
Norse
##inas
##NC
##jin
##uchi
Phi
##lit
NOTOC
##rath
Hubert
Ivory
dramatists
hierarchy
pdf
resolve
##erer
##holder
Beaver
Watts
##aba
Bollywood
##haven
Crow
remarks
##has
dramatically
##SU
amended
portrayal
##ancy
Irvine
Wilmington
porch
Angus
CP
Judicial
Lowe
subjected
Levy
Sánchez
barn
composite
disabilities
##ggio
Kuala
Properties
wholly
##25
##tage
Groups
Rajasthan
##kowski
##olic
Hogan
remarked
##amo
aligned
dairy
ecological
##pace
Klaus
Quincy
breeds
sketches
traders
£1
##bos
##lium
Towers
positioned
Challenger
Tribute
Truman
arcade
frequencies
woodland
##RE
##eries
##hos
Avengers
Artistic
Bremen
Ivy
photographic
##rley
Damascus
button
confined
declining
myth
##eville
##ually
Networks
defendant
streaming
Buchanan
ballad
##arium
##uf
Bombardment
chip
relieved
statewide
##nov
##nya
Businesspeople
EC
GP
Laurent
matched
raced
##lag
##wide
institutional
##ucci
Apache
Shawn
sexually
Metacritic
ensuring
##IF
##drome
##vil
cycles
occupies
stripped
##rab
##tend
##ules
Leonardo
THE
finalists
talents
##eat
Tin
flags
##yev
Creation
Revenue
Ipswich
es
Baba
Seasons
##lini
##unk
##FS
##sfield
##ste
framed
container
armoured
##ν
Lawson
cc
oversaw
shooter
timing
Cell
listen
##code
##yed
Evelyn
Scene
import
pathway
sufficiently
##wind
Dolphins
Fork
Observer
negotiated
fortified
oval
shadow
##tional
Biological
Changes
Commissioners
blast
##iri
##sford
1700
Kathleen
cartoons
Nile
slide
wanting
##tani
dictionary
exploring
##pts
Leinster
emphasized
##NR
##ingen
##zz
Granada
Leningrad
affects
geology
wives
Shelley
##iah
Starr
Status
##aan
##vic
##vice
hire
quarterfinals
##right
##vik
Guggenheim
Rodgers
tram
##80
##cology
##toria
Archibald
marriages
Rowing
##ony
implied
##eous
Si
Taking
comfortable
drops
Geoff
Kaiser
alter
##OW
Hi
burnt
seeded
wolf
chancellor
legends
rope
##lea
##pop
LC
acceptable
cleaning
tragedy
##urus
Piper
##̂t
Format
Vehicle
darker
Pietro
Saunders
##burgh
Carrier
Mammals
circuits
fungi
##itor
Daughter
##chenko
155
demonstrating
##ković
continuation
railroads
##nier
##rdi
##sei
mice
singular
tensions
wikitable
Commanders
Lowell
Nominated
Tu
confluence
clause
##put
##CD
Computing
memorable
##SP
MLS
costumes
lightweight
repertoire
Previous
##ulin
Process
Clerk
NHS
Strauss
botanist
outskirts
##fest
##quest
##skaya
concentrations
##ards
Fauna
Parts
Rocket
polar
Nights
Pulitzer
##rians
Graves
asset
Nationals
Dhaka
Hoffman
Redskins
coordination
Lucia
fairy
Mali
Rocks
storms
Assessment
Paintings
Crimson
feast
explicit
injection
successes
Lil
viral
##tham
27th
Consumer
##lace
##oft
Byrne
Partnership
##diction
28th
Baku
approximate
smart
Prayer
excellence
sophisticated
##oides
Reyes
Torah
automated
donation
##signed
152
expired
visitor
##rse
##stant
Penny
##nant
controller
warrior
Māori
Marseille
##sto
Jet
bitter
nonprofit
breach
specialty
Direction
builder
metric
1785
##iques
##lined
JR
##ope
##moto
Burmese
Farmer
plural
pointing
Alone
Cats
partnerships
savings
denotes
revision
sinking
Lamb
##pathy
chef
expect
sodium
##aling
Overseas
diary
rotating
136
##hana
Conservatives
Constable
Martínez
retains
##edia
anthem
Titan
##mony
Has
commissions
declaring
Clive
catches
neo
##gard
Select
Sikh
Score
fortifications
##gage
##ional
Basil
Customs
downstream
##SD
##ential
##lift
Prevention
UP
globe
impacts
inflation
selective
##rance
Million
borrowed
thrust
acquiring
ingredients
speeches
##cut
Emil
privacy
##pping
Hampson
complement
##sdale
Everett
reside
##nted
SH
Towards
cats
Directorate
factions
##ime
Editions
Reginald
Welcome
##nz
26th
Marquis
displacement
insufficient
lineage
pioneers
steering
##cca
##nti
Kirby
Southeastern
adaptations
undefeated
##ttes
Chronicles
hate
##gt
##tton
Guam
oath
twins
##gens
monarchs
uncommon
node
##bil
137
bedroom
substances
##dies
##iko
Break
##lich
og
##comb
##vision
Avon
Cypriot
Humphrey
Keep
liability
promises
virtue
Content
Offensive
Rutgers
Tina
##chemical
##tering
Pleasant
Protocol
##group
Read
Than
Directory
antenna
corners
##cite
Fresh
cement
##iam
ABS
AFB
##liness
Newspapers
continuity
drinks
pond
repaired
##erman
##oes
##̌a
Sharma
detached
##vent
##zin
Roth
deciding
styled
turret
fin
screenwriters
##tino
prevalent
trim
depend
enterprises
aluminum
550
Melissa
theologian
Seine
spanning
Butterflies
Congregation
Oaks
Sergio
138
collectively
Door
Gore
##agan
##ogue
##wyn
Reader
compromise
riot
tended
Gameplay
Huang
IUCN
Via
erosion
##uth
Recognition
Above
Chevrolet
##like
##̀ne
Candidates
Dominic
Host
cardinal
infinite
##aked
Greco
Katie
Napoleonic
Soldiers
Thornton
sheets
bells
welcome
##lain
FFFFFF
Strategy
Wise
debris
forbidden
stats
supernatural
##him
precision
unexpected
Controversy
Evan
Chance
breakthrough
niece
1779
Atari
dioxide
helmet
announces
Landforms
contractor
##vid
assessed
networking
synthesizer
Bordeaux
Platinum
##dai
asserted
##bies
1786
Gap
Month
admits
rented
##iae
Owens
Sin
boost
identifies
reissued
##tad
##uss
Honey
satellites
treaties
harbor
bullet
hung
prominently
##andra
##rta
Domingo
emergence
##asa
mood
##ophone
##EG
##sions
Tipperary
satisfied
Darkness
arranger
stuck
##owed
##worthy
Extended
electorate
moths
Radical
aquatic
dental
mothers
theatres
##eman
##inate
Projects
V8
transcription
Divisions
Gavin
##yana
Ethics
titular
turbine
##lateral
Mao
Wilkinson
eponymous
iconic
##As
##̇
cellular
fence
##uti
genuine
Birthday
proportional
rituals
supplement
##mental
##uted
Australians
Beethoven
Younger
##jee
Peoples
##chia
Frankie
broadcasters
winged
Fat
delivering
ladies
##tling
Chatham
Less
Newspaper
##itative
##unting
Aerospace
Volunteers
dwelling
Brittany
Equipment
Pomeranian
Shropshire
Wiley
professors
##SB
##mons
ICC
lifelong
interval
midnight
triangular
accomplishments
maiden
merge
##FI
##ament
Dickinson
##cession
##jord
bottle
screens
Dartmouth
ISIL
Liberia
chances
1860s
Degree
Issues
clinic
numbering
Lesser
Warwickshire
lacks
suspects
Coffee
Hands
Sant
Zurich
Architectural
Fernández
Stark
possesses
punches
##rul
##ø
Reno
Davenport
Pac
Scholarship
diploma
listeners
upstream
##aurus
##llar
##lough
1772
addressing
crest
unaware
##rang
arise
rowing
##chev
Olga
flooded
heavyweight
Tours
passive
##chemistry
##forth
##gical
BMW
nurses
##ider
Adults
relied
Monk
Plateau
Scholar
##zard
mob
technically
administrators
Eighth
Vampire
engined
modeled
##bot
##hala
##̃
edit
spokesman
##xy
Character
##fin
##tr
Marian
Monarch
Bahamas
Extreme
demon
vault
##š
Mercy
collectors
dissertation
##cano
corresponds
jersey
##pling
beetles
freeway
relates
Handball
atop
orchestral
##elia
Sharks
con
evacuation
paperback
##ems
Chorus
Giles
preparations
##DF
##dam
##oso
Azerbaijani
Cyril
Pitt
Uzbekistan
spatial
activism
afford
##yah
minorities
##ift
##ool
Springer
licensing
Con
reunion
warehouse
Riders
Tea
##hel
Fulton
Reconnaissance
##asco
##dh
##laus
airs
strengthened
Pavilion
Rankings
financially
##ckers
Tomatoes
Types
equilibrium
##bula
spans
Maj
Mighty
Birth
armored
se
##hardt
Petty
Recently
Tara
def
memorials
##kura
##user
Weekend
averaging
counterparts
nodes
submission
##jay
##ulata
Becker
Blessed
##ket
##rical
Hertfordshire
Kenyan
concludes
##bic
##nut
Dalton
Deal
Niger
Duck
RBI
##ott
Clear
Zhao
##flower
blacks
kW
practicing
##tative
##inated
Tucson
##anda
Osborne
convent
supreme
productive
scripts
Always
Talent
##RNA
Ashton
Eleven
Hilton
João
Landscape
Sheridan
ecology
precursor
slogan
stained
##thy
București
Martinez
notorious
occupying
prefer
##cki
Materials
Reality
graves
odds
owl
##̣
Roses
##rily
270
Humboldt
Specifications
rendering
1750
Lie
##voy
pipes
orbital
##rdo
Carnival
Crane
Target
##22
Laurel
proud
submerged
floods
meal
##iles
Gender
Violin
##ssen
telescope
underway
Sioux
Utrecht
Walking
modules
##eria
XIV
Counsel
Sylvia
activation
disposal
stamp
Achievements
Passion
avoiding
generator
##06
Dominion
Bhutan
Su
##05
subscription
astronomy
robin
sophomore
141
Doc
psychologist
pushing
rowers
##ngo
##eers
accent
delays
scenario
##wain
discusses
fears
retailers
plains
Pauline
heavier
##oons
##tur
patents
Savoy
affiliates
faithful
Instrumental
developmental
overnight
##itated
Honolulu
Rifles
nominal
targeting
##stra
1770
501
Bangladeshi
altogether
exploitation
filmmakers
threshold
##eis
##lop
Airborne
Gerry
Hello
sexuality
##uter
Kang
Returning
##erie
##oz
##rak
Concord
Danube
Hole
economists
reorganized
Dong
solving
##quent
Javier
celebrating
commentators
overlooking
##hoff
Malik
negotiate
stomach
##WC
Random
redesignated
superintendent
Din
linebacker
##aged
##lang
##ono
##rol
Cooperation
Nathaniel
Savannah
##́l
expressions
##building
Amazing
aging
alike
somewhere
Cola
Pack
##position
Broad
Establishment
Poets
perennial
underneath
##isa
concentrate
instituted
1660
announcing
oxide
taxa
##gnition
##wice
Cycle
Looking
Medina
##dit
##wy
accusations
Stanton
##hm
documentaries
##ports
violinist
Alexandre
announcer
134
Axis
Bacon
Whilst
bark
gov
##shin
recall
Palatinate
Thoroughbred
breakfast
onset
unrelated
##roved
Anders
Molecular
Moving
agenda
judged
##̂ne
40th
Supply
debates
fl
representations
viewer
consul
Polo
Stella
inserted
shorts
voter
##isk
280
Canadians
emission
pending
Sunset
Venetian
Vicente
advertisements
decay
##thal
songwriting
triggered
##nah
Effects
Putnam
##olis
Québec
guarantee
##rae
LSU
reproduction
##gler
adjoining
eighteenth
Fairy
Lois
Mackenzie
detachment
explores
##birth
##hor
##lim
Path
##pas
##xa
Marathi
adjusted
homeland
##ading
Farmers
Wii
citation
inscribed
##nology
Historians
assisting
schooling
accompany
debts
Belize
armour
detained
##tent
genome
##nko
Plans
Sculpture
castles
##FM
Rockefeller
frigate
wines
##eld
Gibbs
frozen
prospect
##OP
Darling
appeals
definitions
tech
##erve
1850s
Busch
Scandinavian
Escape
File
rational
260
AllMusic
DS
Vijay
excavations
renewable
##ske
225
Deborah
dams
demise
Growth
charities
disasters
pet
visa
Atomic
Fate
Benton
Huntington
assassinated
lately
##borne
Clifton
Tribunal
specifications
##MD
Ultra
kidney
Romanesque
prehistoric
vampire
Ernie
Fury
Iris
McCoy
Lotus
Rupert
bays
chord
referenced
grandchildren
medallists
##vale
Skating
Shadows
airlines
##bler
##zoic
Clean
plots
transferring
##oids
##posed
holdings
seated
##metry
GB
shocked
cottage
exiled
recruit
turnout
##kt
##rima
Shot
pride
translators
troop
outlet
##ça
Luftwaffe
Races
coordinated
rector
rejoined
##astic
Regent
Catalonia
Crossing
Lakers
Peterborough
confronted
recognizes
##scope
Citation
##lion
diplomats
hydraulic
##bek
Emeritus
applicable
exports
expressing
intentions
racism
Edison
Start
juvenile
noun
toys
##cer
##por
Bern
suffrage
wagon
##gum
Marilyn
mg
##NT
##ones
Casa
dominance
kindergarten
racehorse
##oud
##season
assuming
Alma
Ned
Ninth
##uid
Pune
XV
inform
posting
##grad
Sessions
horns
progression
summers
49ers
Hold
answered
##aco
##iper
1761
Alto
Were
curator
firearms
obsolete
similarity
América
Qbugbot
birthplace
##90
DE
updates
##SF
Patent
##cation
Baptiste
Baxter
Riga
Twilight
##dah
Cooke
Festivals
Truck
anxiety
las
##ships
Chaos
Bentley
permits
Chung
Lands
Speech
clip
##mped
Enterprises
Wyatt
presenters
prone
Bohemia
extensions
sensor
##here
##zawa
Banner
Bonnie
reminiscent
Hare
extinction
##eding
##loid
##wright
Burn
Provisional
angles
emerge
tips
##cea
##pair
Beaumont
attitudes
##ryn
Nolan
Submission
breathing
satirical
##ashi
##got
Mauritius
Persia
locate
declare
Lockheed
Townsend
tally
Bee
Nikolai
Norris
bi
nominees
spells
##layer
complexes
hostage
persecution
throat
warrant
Oz
Treasure
markings
spider
theft
##nos
Help
XVI
excavated
##alk
##ó
Barrow
keeper
##tore
Application
Echo
prostitution
superhero
##jima
constraints
cure
##ank
Centers
Jeanne
motors
##anna
Martín
Po
advertisement
dos
notation
pools
transgender
##eering
Cao
subdivided
worlds
##iti
##rino
A1
Hutchinson
Liz
alto
exceeded
monetary
neighbors
##lter
Initial
halt
mortar
##WS
barriers
quest
##iary
Hospitals
sq
Eaton
comprise
steadily
##lat
##lude
Archie
Snake
logical
##ender
Lyons
Toulouse
confirm
gable
##bara
##té
##omy
1910s
Sgt
reconstructed
##cross
Alexis
baritone
forever
investor
##lik
##udes
Enrique
ranch
##kaya
##lai
Bahn
Liam
Sammy
edu
elephant
##eson
Boulder
Budget
drunk
ears
##teenth
Chandra
Cromwell
compulsory
implications
rebuilding
Cheng
tenants
##OK
Sounds
Yo
silence
solved
Chu
donor
goalkeepers
precisely
##agh
Dillon
vols
Average
Flint
HP
rode
tertiary
##odes
Rwanda
corrupt
geological
papal
Reptiles
organizational
squares
balanced
mobility
##sumption
##ely
Pretty
Sol
calcium
fierce
comply
projection
robbery
##laze
##mmer
Brennan
Levi
Outdoor
councillor
subway
##LP
##TM
##physics
##qui
##uke
grape
##cars
##rates
Clinic
Governance
bull
Maltese
Thought
Fi
comparing
plantations
Daytona
daytime
grouped
limiting
##tata
29th
Antony
Balkan
Loop
uncertainty
Harding
Joachim
Sustainable
treating
##dles
Cooperative
assumption
regain
##nburg
Arcade
Holstein
surpassed
NJ
afterward
denominations
##rges
##tern
Outer
telecommunications
80s
Caldwell
Malawi
tissues
##GS
Ba
Wedding
recruiting
tributaries
Andes
Reporter
Wan
##care
##kka
basal
funny
poetic
##DR
##ference
##gley
##suke
knight
Breton
Dante
143
Leiden
Wembley
Qaeda
Scientists
Vega
electrons
refugee
Hat
Sector
Sexual
extraction
##GC
##mins
Loire
Mafia
Countries
dose
##gata
Sarajevo
##chs
Marino
NYC
Sand
fountain
sin
##hee
Directed
dried
exams
Woody
gases
Zhu
feud
plateau
##rth
Ole
Peel
USL
counting
##ffin
##graphers
Integrated
185
##human
##usion
Generally
Porsche
casino
##ception
##jon
167
blocking
obligations
##ogical
Orioles
expeditions
forts
##ré
Conan
inductees
lobby
##tidae
Weimar
##aq
Corpus
Ya
ballads
functionality
guides
Łódź
Actors
Liberals
Typically
clearing
discharged
hardcore
##48
observer
partition
sheriff
##erina
##ross
Heads
Worldwide
courage
deposit
Cobb
EOS
Salon
dock
provisional
treasure
Harriet
hunter
##ality
##cci
Berger
Milk
Russo
presided
Nichols
Oldham
Wolves
cease
##cope
Highways
Weapons
skeleton
tooth
##Ps
##dington
##rona
Births
Method
battlefield
mountainous
structured
##nies
##uce
Esther
Laguna
verbal
##mers
Cage
Numerous
Sa
Terrace
undergoing
whale
Barney
Titles
testified
HQ
UAE
Selection
examine
predators
##amp
##loaded
320
chocolate
nationality
shooters
##inen
##orum
142
Derry
Eli
pirates
damaging
hiking
postponed
Tri
feeds
##enko
##lein
CDs
Extension
Siberia
Healthcare
Ultimately
humorous
implementing
lowered
##ctus
##rness
Blackpool
Eliot
Goldman
Sundays
##evich
deficit
forgotten
podcast
possessions
conferred
individually
##anza
##pie
Rebel
communists
##eni
##path
Goodbye
Morse
##100
Serbs
sensors
##yuan
100th
Anime
Nippon
assignments
##used
reproductive
##ovsky
Waterford
exported
paternal
##ML
IGN
qualifier
unanimously
##07
##rp
Dome
badge
homepage
instant
##rane
courthouse
dive
##23
##cas
##és
##uang
badminton
##fan
##xed
Mama
gymnastics
inventory
tricks
Hasan
alias
##iferous
##manship
appointments
##hian
##iu
Keys
Rosario
Schwartz
gifted
peasants
refuse
##jk
Bowling
Freddie
Swimmers
Diploma
ordering
Mines
sailor
Crescent
Einstein
Flynn
Teatro
occurrence
México
cone
enzymes
unconscious
##72
##tations
Destiny
Specific
Unified
gubernatorial
##kita
Guyana
Hector
Philips
Wizard
##chan
Mandarin
##yya
Bomb
bibliography
1760
arches
promoter
##ede
##vocation
refusal
sanctioned
Byrd
Julio
Telecommunications
##stad
Charlton
Cornelius
abundance
attachment
dwarf
intake
##08
##nery
tracked
##corn
##rri
Composer
Resident
Spy
positively
refusing
shareholders
wouldn
##game
Pain
í
summoned
swim
Habitat
SV
Vanessa
drought
##bir
##hawk
##some
Donnell
Brendan
asylum
postseason
reluctant
terror
##ann
##lid
202
Armoured
Tyrone
rental
##izer
Landmark
Print
Punk
Ella
backgrounds
observers
portable
##35
##cripts
Somali
offence
poster
Earlier
Explorer
volcano
Leicestershire
205
Extra
RD3
Yuri
congress
##cles
Caucasus
patrols
Forrest
Mare
Meet
Pure
fixture
pipeline
slower
##action
Premiership
Troop
shark
##anne
Chiang
Raphael
##iar
Approximately
Journalists
Risk
##HF
Belmont
Identity
Kit
ethical
tide
##hang
Heinz
Invasion
LDS
Touring
censorship
reissue
##UP
##mation
Czechoslovak
combinations
Airfield
Fairfax
Watkins
apex
zoo
devised
hook
neighbor
packaging
Sharpe
sandy
##erne
Peggy
borne
fitting
##rana
Trouble
avant
coral
Rutherford
granting
##pta
##sexual
Madhya
Reconstruction
sociology
Camera
Guns
Jain
reinforcements
Bone
Boone
Friendship
accurately
pedestrian
##ffy
Eisenhower
accumulated
intervals
retrieved
wool
##recht
Hussein
##86
idol
presumed
socially
trigger
##bius
##ppe
Tottenham
apparatus
##wu
Server
deities
praising
##note
cartridge
pressures
processed
unstable
##iology
Hotels
Richie
Violence
##itch
##lap
Saga
Worcestershire
Medium
##xx
Claudia
Farrell
Institut
Mainz
Soviets
sensitivity
##rama
Caledonia
icon
insight
replica
slender
viable
##zzy
Marks
Peerage
posed
##tains
Demon
Doom
Everton
Filming
automotive
chiefs
conscious
olive
perfectly
McGill
barracks
engineered
reasoning
softball
thickness
##gling
accounted
flour
picking
Celebrity
chambers
##iver
Simple
anterior
##hoot
Commanding
Revenge
pronunciation
##lists
Doris
##IO
##genic
Models
Weaver
retreated
pitching
skater
wells
##ago
##rgo
Elias
McLean
##GE
USAF
archaeology
##heart
blend
##RP
##numbered
consort
gasoline
##derman
##iving
##reed
Shankar
cancellation
Kappa
##anu
audition
behaviors
locks
stays
##gam
Viktor
inability
sells
##trate
##hic
##hun
Haitian
informs
cardiac
rolled
vacancy
Dramatic
Residence
##aking
1768
Brotherhood
Guinness
Organ
patronage
recovering
dispatched
fare
myself
offspring
##CP
##tending
Orient
famed
Compilation
Gross
MBA
offerings
spiral
##VN
##nst
Monkey
seminary
##ulu
Moody
inferior
Galicia
Played
chiefly
##chard
##dock
Militia
##VC
Boyle
crush
economically
whites
##UC
##aru
##̈t
Cut
GMA
##iring
DD
Mughal
##cist
##hra
1767
Certain
Quarterfinals
Xu
courtyard
fraction
##IL
151
Anthology
Banking
Andersen
Mode
organist
Alien
Product
Weiss
stressed
##rkin
##udi
Irwin
shrub
##cel
##phones
##xia
Pier
ancestral
##chet
##gau
##goon
Scheme
Yankee
forested
tolerance
##active
##adt
##hum
receptions
steals
##EL
##olate
##lessness
Ninja
motivation
suffix
unusually
##wari
Basilica
captained
compare
infections
##bell
##lass
Toby
broadly
Burnett
Sainte
geometric
Believe
Garrison
Principles
Gallagher
arbitrary
diabetes
ni
popularly
Bury
Lars
victorious
##64
##oga
bowler
charging
cubic
discoveries
garde
##45
##xton
Diary
Massacre
Net
Oxfordshire
essence
##uil
Restaurant
campaigned
psychiatric
Robbins
Wireless
pastoral
residency
tiles
##eb
##love
##rank
collar
differently
harvest
Spiders
WWF
bride
regulate
Exposition
assess
confrontation
scout
147
Flyers
Mongol
##opsis
31st
Courthouse
Lumpur
Seal
consortium
Harmony
Nottinghamshire
afraid
posterior
privileges
##ckle
##lora
Biographical
Booker
Ordnance
captive
facial
grossing
ruined
##minate
Buckingham
OH
constituent
lb
nm
Burgess
Ida
Shrewsbury
Teddy
pilgrimage
##cover
##isch
##voke
Missing
Nicholson
##mper
##stal
Adjacent
Robot
Strip
playable
##70
##sian
Zen
cum
deposited
##sai
ions
stealing
##laughter
Daddy
PS
memoirs
staging
taxi
Arc
Purdue
interception
##rong
##rson
rebuild
relate
Deer
Expeditionary
Rough
comfort
genocide
intimate
passages
##lub
Boss
GA
bags
chaos
##moor
Mai
digit
oppose
##sque
146
vein
##MF
##RO
Sheila
burden
##DI
##iol
crossover
inadequate
marginal
predecessors
Roots
Jump
kernel
trauma
trout
1766
inactive
issuing
##mail
##̧a
ACC
Strasbourg
careful
##ario
##llow
Defensive
Formerly
teenagers
wrapped
##dication
Dear
Rover
fulfill
subordinate
##clusive
##eep
##wai
Families
Kilkenny
Olympia
basically
eminent
happiness
Hicks
Lone
Royce
SM
eliminating
pan
trustee
##bson
##clamation
##rats
##rawl
Links
Provence
Stockton
defenses
Bernie
Faber
Spike
depiction
extract
intersections
nice
##ught
Navigation
Wolverhampton
pope
##quist
Carrie
adverse
##ević
##tner
Gaming
indirect
licenses
##lde
139
##lana
Château
Poles
Secrets
spur
##nja
Brunei
Fairfield
Meredith
chartered
originates
##guchi
Compton
##tam
##zaki
153
Photos
Ready
galaxy
Paso
illustration
militants
petroleum
slip
Dell
darkness
monsters
prayers
racer
symmetry
fraternity
ash
disappearance
##mata
##scription
halted
156
Parma
pneumonia
##mare
##uni
Facility
Ghanaian
pot
Candy
Fishing
Norte
Postal
climbed
survivor
Wichita
assumes
suspicion
##rative
exciting
Thousand
colonists
cruisers
##gating
##irus
humid
Habsburg
Paz
Raleigh
Romantic
Salzburg
kingdoms
Important
hammer
Amphibians
ballots
trombone
##culus
Blackwell
Desmond
##ete
##hya
##omo
##uria
Bowen
Hindus
batch
catcher
comparative
Aragon
homage
##PP
Connell
Files
Ruiz
inequality
packages
selections
##DM
Freestyle
##ein
Mansion
NWA
aluminium
launches
wreck
##yeh
Afro
Assistance
CBN
Chain
Telephone
absolutely
employing
##aa
Attribution
España
calm
enjoys
##mented
##nac
Lam
Mounted
Yukon
##etus
Perhaps
154
Centro
Colt
Laurie
Lonely
Ramsey
fundraising
##ivated
Diet
##ís
Feel
statutory
##girl
##uve
##athlon
##ndra
##tium
Move
surveyed
Subsequent
violated
##OD
##aman
##rows
Focus
Kapoor
fingers
muscles
Cornish
Simpsons
preserving
850
Accessed
Atkinson
Flores
weekends
##achi
##lying
##ssion
201
Alejandro
Hui
Oilers
miniature
prosperity
treason
##cellular
##gaard
Bold
Fortress
Giro
candidacy
Dexter
lyric
speculated
Düsseldorf
VA
talked
##bourg
##ear
##oof
##wart
Suzanne
devastated
golfer
wagons
##rook
##uit
Aside
Coliseum
Constance
satisfy
##ffle
Blade
##HP
VC
Westphalia
honest
##tley
wise
##fies
##gging
Sept
emotion
packed
plague
shifts
Calendar
resume
tuberculosis
##iated
##icial
##lance
##shaw
##zione
Jaime
worthy
##kle
duck
Dukes
Edo
Funk
Monsters
ODI
failures
habit
showcase
Baja
Knoxville
reservation
supervisor
##ark
##rvin
Omega
partisan
pioneered
Hubbard
Crete
Dry
Garland
Mariners
translates
##rter
##tem
blown
hardly
joke
Lublin
Subway
harassment
unopposed
##tology
Bon
airplane
princes
dawn
detailing
encourages
Lenin
angel
lodge
Fountain
Veronica
fellowship
Shelby
allocation
alternating
federation
##ová
##vage
commuter
litre
millennium
Babylon
biographer
controversies
##heimer
##pura
escorted
vacated
Twenty20
combustion
hurdles
mutations
##dman
##mined
Odyssey
Securities
databases
exchanges
fixtures
fungus
zur
Botanical
SE
entrants
exchanged
protested
Burning
Ottomans
blockade
##ND
##clave
Damon
Libyan
Miracle
beneficial
insect
##cision
##holm
Ambrose
Connection
Liang
passport
redevelopment
##rilla
Expo
Trains
evaluated
soundtracks
workforce
##market
latitude
Exit
Piedmont
neurons
##ductor
##lug
##see
Benfica
FLO
motif
mural
##mand
##osh
Appearances
Quantum
149
Hoover
derivatives
ru
torque
##edly
##fit
Canary
numerical
##color
Cadet
Doncaster
Skinner
freelance
hereditary
patrons
yields
##lington
Wins
coastline
em
kiss
pulling
##nett
##̃es
Howell
resting
tuition
unprecedented
##prise
Cheltenham
Jasper
Spectrum
Usually
anchored
pirate
terrible
195
demonstrates
surroundings
##sius
1759
Gateway
##ales
Jays
Sale
Strand
contests
jewelry
shortage
wheelchair
##bile
##boards
##gnet
##rada
Abbas
Eurasian
Huddersfield
##ieri
Architect
Nonetheless
Romero
bombardment
que
vowels
waived
##eas
##endra
prescribed
##aus
##sons
##tara
Théâtre
crushed
jockey
##ior
##rado
##screen
CO
Chargers
PT
skier
##gni
##lmer
##nish
profitable
Bow
Jurassic
Lao
Regions
Stratford
Felipe
McMahon
Ravi
cord
sixteenth
##DE
##uel
Councillor
Hercules
Simone
mentally
optimal
reliability
unchanged
##chers
##gues
Cartoon
Regulation
renovations
Petroleum
Rap
CC
Cody
Had
likewise
possibilities
##ckey
weighed
##aver
Sands
Sleep
infamous
namesake
Hübner
Sunni
antagonist
baseman
##hine
##ilo
1773
192
Membership
Missile
servers
##pine
Elected
Middleton
Provinces
Remember
##ifier
##riel
Janata
Surgery
sympathetic
Browning
Coca
Met
contributes
##cos
boiler
das
westward
##rar
Chicken
Please
advent
leisure
nobles
reigning
synagogue
##rky
Ariel
Beatrice
cooled
manned
##quities
Amber
Erich
Grange
Panther
##ector
##ī
330
Guangzhou
Reeves
Wesleyan
happening
physicists
receivers
##omi
Boom
constructing
substrate
##how
##issa
CONCACAF
Founding
Publisher
umbrella
##ige
##ssed
##tech
##wed
Loch
homosexual
resembling
##ater
##ß
Horizon
Response
Silence
heaven
upright
##aker
##vered
Houghton
##gny
##jah
##otary
PR
cooked
luck
solitary
##ntly
##vet
Fresno
experiencing
cassette
exploded
jungle
para
##shing
##̈l
Advocate
Amherst
fertile
Person
interpretations
##mler
##rent
##zhi
##́in
Adler
Oral
depths
musicals
simplified
##IR
##rga
##tary
Río
Wally
rower
##redible
##sity
Padres
tin
verdict
Presents
resist
##AB
harder
##cultural
##lary
1640
Merrill
Skin
knock
loud
##rbin
Flood
confronts
shifting
warships
##gative
##tadt
appreciation
rockets
Gus
flesh
immunity
##anca
##gnant
Comes
Moran
hindwings
resolutions
##ables
##hiro
##ride
Neither
SD
##ahan
##formed
##yal
discovering
metallic
##reen
Mitch
lightning
villa
##31
##holders
##ival
##phora
Secretariat
VHS
fined
photographed
Alvin
Islanders
funk
incarnation
instantly
shoe
##GB
Presley
Racecourse
alcoholic
thread
Giorgio
Conflict
IAAF
laboratories
Ortiz
Willow
cliff
realism
##bill
##iard
Netflix
fix
integer
patented
takeover
honoured
##hari
Boise
Halloween
Nagar
necessity
##ieu
##sused
161
182
215
Numbers
##vable
##vous
157
Same
prosecutor
snakes
Flat
Michele
Thor
##elo
Certifications
Palermo
Valuable
treasurer
##sp
##tral
##tura
Sultanate
Willy
contingent
##wine
cartoonist
organism
printer
prisons
##ills
Gymnasium
prompting
sergeant
shores
##bas
##cky
##idea
##ili
##ologies
Ban
Carmel
Counter
Seville
Tasmanian
##ups
Geelong
Retail
absorption
overs
pressing
robots
CFL
Details
Guerrero
Job
authentic
dispersed
robust
specialists
##titude
148
Bud
defendants
##ogist
AL
Ankara
Constituency
Flames
fr
rats
Bauer
Centennial
notices
ranged
suppressed
##kari
##rene
##rital
Universiade
devotion
entirety
markers
outright
##tility
anatomy
distributor
allegiance
conditioning
rod
##cot
Apelor
Hewitt
Orders
Sindh
archbishop
boot
exhaust
outfit
transparent
##ols
Daisy
Hai
Prasad
Used
respiratory
Albuquerque
Arch
Snyder
attracting
gravel
##azi
Baton
Jessie
Kitchen
Sailing
proposes
realised
shuttle
signaling
suspicious
##lue
158
168
Lantern
Shipping
determines
rejection
variously
##sz
##tended
Bonus
Cumbria
ideals
##dicated
Crimean
culminated
guilt
premium
##tial
Ismail
Welch
specialised
##ilization
Croix
Pamela
Wheel
pleaded
##enia
##isms
Bella
STS
blame
##hui
Sherwood
adapt
concluding
##mani
Homepage
Kensington
Abel
Calcio
Enemy
Scouting
Visiting
hiring
induction
##sor
Macdonald
collaborations
examinations
sparked
##bria
##where
feathers
1771
deadly
cheap
heirs
Coat
Commando
Garfield
Rs
bee
converting
iOS
##cible
##hore
##jit
Example
Kara
suits
##alytic
##runner
Musée
Tong
demographic
expresses
redesigned
spinning
void
##bolic
##gano
##gins
##tler
collects
qualifications
##cated
Administrator
Botswana
Vilnius
characterised
suffers
yacht
##Net
##emption
##lasia
##wolf
##̀res
163
235
Atlantis
Goddess
##icular
Crimea
Oswald
feudal
Aristotle
imprint
##aring
##rani
##will
Operating
alert
dirt
Brave
##sychiatry
##uated
Cyrus
Mendoza
atom
pays
witch
##gill
Brief
Daly
Nuremberg
Pascal
cook
1762
continually
indication
innovations
portrays
wisdom
Gymnastics
Melville
Monmouth
temperate
##tien
Bloom
branding
mandated
##mile
90s
Amos
Samantha
analyses
vacation
##cats
##ific
##paid
##uba
Fossil
distribute
obscure
##biology
Chrysler
FIA
Ó
Sloan
Ulrich
Versailles
ratified
##notes
BP
Chinatown
##minated
256
AHL
Forty
Juniors
Mae
podium
unfinished
##sport
##tford
Elaine
grace
jumped
Joanna
Solutions
appoint
incorrect
Drum
GAA
Immediately
centred
uncovered
##gua
##ind
enforce
poison
##lev
##vara
Anthropology
Badminton
Eliza
Malaya
Vishnu
libretto
##real
##zine
Borders
Côte
Lamar
Salle
Transfer
adopting
prefix
##rc
abolition
identities
litigation
unrest
##phan
Nissan
Silla
excited
teens
##raction
Benz
sauce
thirteenth
watches
##culture
##ffs
Barlow
Hulk
Samsung
parameter
syllable
##aming
##hout
Affair
Clock
##ddle
##omatic
##physical
captains
crowds
medley
radial
Alessandro
Maintenance
Mysore
delivers
##wei
Akron
##ailed
##phs
##yra
Fisheries
classics
clearance
merit
mutation
retrospective
standardized
##TO
70s
amendments
contemporaries
periodic
quote
subtle
Museo
Princes
securities
wilderness
##ière
##mist
##sche
Rothschild
franchises
lava
renewal
stretches
##lous
GmbH
Swing
Yahoo
operatic
##ção
##rive
Lighthouse
RTÉ
Straight
probable
processors
diaspora
Blog
Bonn
resemblance
warbler
##arm
Bravo
TX
contributors
##itable
##leen
stuff
Bourbon
Edited
Southwestern
brewery
depict
poisoning
##nics
##yland
CPU
Loyola
Toy
meals
portraying
##hea
Olive
Reddy
burst
switches
##aper
##headed
recruits
##tok
Jacqueline
intercepted
heroic
##gies
##rinus
162
Bodies
Led
Mu
Sino
Sumatra
jurisdictions
Nate
Scarborough
micro
principally
##raged
DR
Deportivo
Editorial
Playhouse
botanical
focal
militant
nationals
##RL
Rolls
dei
##VE
Sheldon
Sociology
Yokohama
nightclub
plug
spectacular
##stro
Abd
Amtrak
Trials
escaping
execute
spokesperson
Hidden
Marquess
chooses
fi
murderer
scenic
##have
Alicia
Domain
bush
##nny
##yte
Cafe
Ramos
intersects
taxation
##comer
Tradition
WISE
amphibious
culminating
productivity
utilize
Guthrie
Hiroshima
globally
imagination
routing
##urb
Conflicts
Greenville
bombings
stack
wherein
##oral
##ł
landings
persistent
seventy
##rons
##written
exotic
php
surplus
zu
##cend
##leaf
##rig
##yoshi
Brasil
Northamptonshire
Speaking
cockpit
##fts
##tracted
phosphate
recruitment
reddish
##NBC
##llas
##rro
##standing
##uddin
Fantastic
Scale
erect
histories
##500
##ester
quotes
##cape
##cion
##erated
##nath
##uto
Merlin
171
CB
Sad
Armenians
Forestry
NL
pavilion
stretched
##unta
375
Amelia
gymnasium
nobleman
omitted
ou
procession
rumors
##rac
##rini
##uman
Found
Italians
marching
1765
Papa
Wien
pits
stunt
##icious
##irk
Gear
arrests
b0e0e6
devastating
grossed
prevents
##mund
##sting
Bohemian
Label
Vehicles
pharmaceutical
presently
##33
Dock
Rai
Stranger
cow
eligibility
killings
##bul
Bucks
habits
outlined
specializes
##tet
Brock
diagram
##nom
Historia
Historian
Orion
bare
epidemic
tunes
##lates
Ada
Residential
nineteen
pillars
slate
##ctors
Kramer
Lock
Weir
immigrated
meditation
methodology
scholarships
##26
##ungen
Buckinghamshire
Holding
Académie
Distance
Gómez
Jesuits
Sichuan
Suburbs
Suns
Thessaloniki
tens
winger
##etta
##insky
Natal
Sid
troubled
varsity
##nnes
Moreno
lumber
seventeenth
##max
disappointing
stripes
##36
##cards
##eras
##lund
concurrently
dismissal
stadiums
##42
##league
ink
salmon
##SM
##amed
Avery
Crash
Peabody
Vickers
proprietary
##ego
Physicians
Plata
Schleswig
angels
##27
##alia
Anand
Fifty
admired
composing
strengthening
vocational
##38
##marine
##rism
HM
Jew
Stade
Volkswagen
chromosome
discs
liberty
##wig
##xide
Bernstein
crashes
desk
##national
Copper
Lucius
Singaporean
guardian
meanings
participates
##raft
analyzed
install
Lydia
Nickelodeon
Shrine
alterations
bacterial
communal
evaluate
glory
lattice
McKenzie
Milano
Monterey
Potomac
Rabbit
axle
##beth
##uries
Wight
winters
##ided
##ove
Ark
Philosophical
Poole
ankle
insignia
saxophonist
##55
##ruce
Bunny
Lea
persuade
##̈s
Hinduism
anthropology
lovers
##dora
##hman
1764
GPS
minds
worried
AI
Generals
##alo
##bana
##encies
##sko
##vise
acquitted
degradation
dressing
neural
obituary
charting
halfway
##ilis
##pse
##rika
##sso
Elephant
ads
firmly
theorists
##folia
Mohan
promotions
##vention
Advance
Astronomical
computational
##ometer
Rudolph
Surface
decreasing
Theresa
Woodward
##oney
Darlington
Screenplay
Tallinn
incoming
privilege
##cratic
1650
Christoph
Funding
Warfare
caste
explosives
Andrei
Foods
Fremantle
Northeastern
Shia
Watt
deadline
deleted
##lung
##lute
##orious
##rano
Chesapeake
Solid
warming
Ai
Canadiens
Mitsubishi
Rhineland
Silesian
chancel
mortgage
##ctive
##kind
Comprehensive
validity
washed
##pedia
Arte
Drivers
investigative
overwhelming
protocols
rewarded
##MB
##hab
##rem
1715
Malone
Variations
circus
favoured
Appalachian
Panel
Rowland
definitely
interceptions
lowland
probe
temporal
upheld
##MR
##tated
Fever
##LE
##phus
Friedman
Gwen
Hamlet
landmarks
##AG
Luc
Wilde
arguably
harmonica
##ño
Ion
Typhoon
calculations
loads
soloist
Dunedin
Lot
Sarawak
hunger
villains
##tten
armament
digits
##cius
##hwa
Acoustic
accelerated
Across
reelection
##28
##ires
181
Chef
Denny
Mongolian
Novi
mistress
##aves
##nces
##nh
##sher
##unker
Bernardino
creators
disappointed
migrants
posters
relies
reply
correlation
spends
##hsil
##oki
##oms
212
Persons
Toni
prolonged
puzzle
subscribers
##wards
Mirza
Trading
Ye
displaying
homosexuality
Guangdong
Juliet
Pomerania
Rodrigo
Yiddish
gym
retrieve
##ait
##alogy
substituted
tempo
##break
1754
Missionary
desperate
multiplayer
Hurricanes
builds
clashes
logging
##gor
Ranking
enforced
fencing
##cis
Hitchcock
Temporary
fleeing
lacrosse
##acle
##dha
Cottage
archaeologist
punt
##iting
##oos
##zam
Carbon
Kathy
tiger
##ioned
##verts
Ko
Nikki
Pocket
earnings
loving
monumental
twist
Poet
outline
premiership
##oar
##uad
Colchester
airborne
Cobra
Cynthia
brake
correspond
undertake
##dak
##writers
Continuing
Horton
Lawyers
Minas
legislators
opener
rigid
tidal
##34
cables
dominate
inauguration
seas
##Cs
##lberg
##nson
##onal
##uary
Xi
##DB
Tunisian
propeller
suppression
##lya
##rip
1769
Craft
Goal
sacks
##ej
##sper
211
##PI
EA
Fighters
Tears
cannabis
propelled
##sign
Butterfly
Corey
Diesel
Poznań
copied
##cium
accessories
rebranded
##MM
##islav
ARIA
Córdoba
##att
##tories
Eclipse
Nurse
USB
meantime
##lou
Comparative
##rrier
159
Abbot
Díaz
Shea
brigades
minded
touched
##litz
Regency
additionally
##vina
164
Concept
Dinamo
Mont
Serb
WTA
hymn
Chin
NPR
Petit
exceeding
portray
readings
##noy
Nora
Tests
captivity
##TP
##cote
1840s
Katrina
Talking
Valle
Warning
socialism
zinc
##wicz
Melody
aliens
jaw
torpedoes
##londe
##rupt
##ssi
Goldberg
Should
consultation
profound
ventures
##ceive
##cil
177
Acacia
Buckley
Godfrey
threatens
##frame
##nsky
##xley
Cups
Function
Lover
Sep
congregations
reviewers
splitting
stairs
##WR
##bow
Curling
MLAs
Panzer
Shuttle
foreigners
ramp
valves
Gale
Hanson
apprentice
##IX
##ads
##ums
172
Breaking
Leafs
NK
Roller
##rito
Antioch
Ljubljana
sharply
##pher
##zilla
choral
definitive
obstacles
precious
signatures
##́o
1648
Gentlemen
finances
Shan
refined
##nir
KO
Reason
Salmon
Spiritual
currents
enthusiasm
racist
##lities
222
Buccaneers
César
Enforcement
##meter
##phic
Denise
Dixie
Lara
multimedia
narrated
pose
##medical
##ulo
browser
Boer
distress
sleeve
subset
##nji
##raz
##rgus
Dangerous
Hussain
Otago
conception
##cino
##cup
##oot
Improvement
LR
constitutes
monopoly
##nack
##nge
##oned
conceptual
inspector
##surance
1740
Assyrian
Leagues
coding
tortured
##eli
behavioral
joy
practically
##bilities
##rrie
##ued
Syed
Tito
Verdi
brutal
considerations
generators
heights
investigators
openings
Jong
Paterson
stranded
##lastic
##llus
ashore
drilling
motifs
rails
166
Courtney
Kitty
Mia
chairs
malls
##cheng
##ggy
Aquatics
OBE
Patton
enthusiastic
mistakes
Married
lyrical
reggae
undergone
##cting
##ingly
##lique
Emilio
Nam
beef
turbines
##MO
##bled
##ettes
Alfredo
Foley
MacArthur
Protestants
aforementioned
apple
differing
flexibility
punch
reverted
MLA
Rare
fragment
##ogenic
##schen
Cap
Everybody
amusement
crude
excavation
Stevie
##tained
##ław
340
Canoe
Instruments
Reservation
Romney
Rudy
Soft
announce
1707
Ethel
Harley
Novgorod
ceramic
dans
logistics
stretching
Advisor
Aero
Alec
Morales
Astros
Timor
dismantled
overthrow
##wana
ensured
margins
nuns
satire
##powered
##pressive
Fife
Nicola
Spin
Sunny
acquisitions
marrying
##claim
##ign
Rings
texture
##rns
275
detainees
tractor
##árez
##vising
Understanding
weakness
##estone
##sham
##sistence
Eton
Institutions
hunters
magistrate
restoring
Drummond
lasts
obligation
rappers
##mize
##planes
Python
merging
stole
##mato
##mics
206
Polk
Retirement
aiming
Vuelta
confirmation
everywhere
hitter
morphology
##hetic
Kelley
Pub
Taliban
denomination
observing
tragic
##rso
##vary
Minsk
dioceses
lifting
##hit
##rca
API
Sanchez
accession
cheaper
unnecessary
##wat
208
Hillary
Logic
Sims
Trunk
astronomical
cavity
##masters
##ption
Poll
admit
brakes
grenade
regent
##ulse
Anaheim
BYU
CBE
Matter
Plantation
##NE
##isting
##lland
Mint
Santana
pledged
semester
##rification
Minutes
Slave
canals
kidnapping
separating
##HM
destructive
sperm
##RB
##avia
##fusion
##llah
##truct
Montréal
trades
vocabulary
##uiz
##week
Choi
MMA
Otis
Problem
Ramsay
Spears
appreciated
archaeologists
knights
mound
##ão
##pol
176
MB
Prehistoric
Transylvania
addiction
nonetheless
whitish
##izations
##pid
affordable
elevator
kHz
planting
##iman
Currie
Duty
Martial
Perez
auditorium
promptly
stocks
##lves
Marne
exempt
foremost
##hop
Alley
Problems
volunteered
##graded
urging
##fia
##mat
218
Framework
ethnicity
##oper
##rsey
balloon
integrate
shirts
##ledge
Verona
educate
incorporation
hurling
##ccord
##itarian
##lair
188
Bomber
harp
linguistics
satisfaction
segregation
##roa
##shima
##vres
Odisha
bricks
##dation
##jer
##phon
##rack
Definition
##jet
Apr
Gertrude
Rancho
deported
roofs
##under
Constabulary
Elton
Gregg
invasive
jokes
scorers
##ddy
##isan
##ishes
Cleopatra
Jammu
Josephine
Megan
Nokia
##chel
##dr
##ducing
CS
EPA
Keller
Pasadena
Willem
Briggs
Eddy
NRL
aide
poles
##fying
##imation
Christi
Curry
Hara
Pages
lamp
subsidiaries
##unda
camping
deposed
farmland
infrared
##gai
##ogen
##ogo
Advertising
Hernández
Ramon
besieged
intellectuals
##inted
Penguins
Waiting
Welles
discourse
ecosystem
justified
peasant
##enham
Comparison
HK
Influence
containers
drill
entertaining
instrumentation
overlap
tapes
##amine
##elt
##liant
##ulf
##ū
BS
accordingly
elegant
##lda
213
Assault
Leaf
Priory
autobiographical
illegitimate
##arity
##fs
Goodwin
Kind
Noise
acceleration
##bate
##liff
##н
Jade
Maximilian
costly
hang
##eval
Kendall
invest
meanwhile
seize
##lient
##qa
##ssie
Napier
Stay
predict
reef
reorganization
Olsen
Tide
barred
discrete
obliged
##acles
##oiled
##uaries
Mecklenburg
newest
postgraduate
##mind
Kyrgyzstan
Poe
Residents
choke
concurrent
ribbon
Clair
Honourable
Mackay
offset
##99
chaplain
##ours
Lesbian
Obituary
judoka
##lston
##thorpe
##̈rk
Dollar
Haryana
duel
tense
##luk
##pressed
##tops
Barracks
Bernhard
Estates
Freud
rabbi
Série
beloved
caliber
inherent
##dice
##rudence
1755
Lviv
Seneca
Uprising
Webber
bind
choreographer
manipulation
pyramid
##ente
Cecilia
Ethan
Scientist
seals
##cribe
hell
indirectly
Fry
Se
Spa
cab
confiscated
debated
##46
##tour
169
Ponce
deny
pounder
steamer
##monia
##pose
221
Must
Rossi
Taft
gradual
marijuana
surfaced
##ances
golfers
terrorists
##agon
Burt
Quentin
extracted
menu
##cum
##ews
ACT
Pavel
catching
patches
sentiment
##naire
##scher
203
McKay
Rhodesia
Sawyer
sustain
##41
##nose
Bartlett
Debut
checks
##QL
##ih
##losure
##uren
Grave
Société
immense
petrol
staircase
wa
##gli
##zza
Costello
Lecture
astronomers
cites
denounced
proves
Galerie
dot
##75
##UI
##urge
1400
semifinal
##ahu
##berties
##ckman
##dham
##esco
##yes
Barr
Benin
Printing
sweep
Celebration
Nat
theologians
unhappy
##sonic
##waters
Called
FDA
Hollow
Saul
Translated
leaked
pH
rim
wetlands
##hammer
honey
northward
puppet
##bbing
Para
Position
nickel
Dom
Pueblo
Salford
convincing
medication
##lose
##nard
duke
fishermen
flame
platoon
##unate
deaf
drowned
overhaul
polling
reject
##́ria
Collective
Seahawks
Yorker
pig
tablet
wrecked
Balkans
Montenegrin
Ravens
clash
examining
fox
naturalist
Edit
Imam
Maccabi
conducts
earthquakes
##66
##RI
CW
Clarkson
Cummings
Indie
Psychological
Tacoma
arid
##stream
Cain
Uses
Viola
merchandise
##liance
##pora
façade
##aint
301
Corporal
Stephenson
dug
spun
##eveloped
companions
tenant
##ischen
Boca
Shields
demons
generous
##mite
##KO
##nikov
##rks
Favorite
crossings
metabolism
##kumar
##ulton
Rosenberg
mounting
Hayward
lone
midst
perimeter
pleased
365
hatred
##EX
##IE
Ajax
Cambridgeshire
Gamma
Principality
likelihood
##hampton
##lytic
1753
Disaster
Parkinson
beams
intentionally
Oricon
Pepper
Violet
Voyage
Wish
friction
penned
rhythmic
unmarried
##blin
##mberg
420
Corridor
Université
confident
gradient
weekday
##ь
Allah
Elements
Franciscan
disqualified
foul
##eux
##roup
##with
Bayern
Kahn
diminished
emblem
triumph
Disco
Qin
cake
visibility
##geny
##jiang
##tov
Alonso
Tonga
deputies
recalls
sampling
setup
##FB
##unds
labelled
plaster
Coronation
Leave
##lithic
##made
197
Amir
decreases
##eyer
##rrence
Coral
##ntal
ITF
Quaker
Traditionally
Wilkes
clans
simultaneous
souls
vegetable
##avi
##org
Annals
Stream
fathers
guerrilla
##get
290
DJs
Institutes
Moines
Watford
orchid
##eto
##ivating
##rams
WA
seller
##cale
##sight
Beckett
Mixing
Vargas
bankrupt
treatise
Chattanooga
Hayden
alternatives
critique
monastic
spinal
##EK
##ratic
##rsk
##therapy
1745
Pembroke
Xinjiang
##ipe
Portal
indicator
##44
##egan
##erick
Cassidy
bureau
lenses
##redo
Growing
aggression
utilizing
##garten
##nius
##zers
Fed
Bethlehem
advertised
eruption
installment
resisted
##ases
##nat
Kingdoms
rematch
##FP
199
Padma
Transformers
##gnate
Cantonese
Collingwood
Passage
Terra
flourished
outfielder
questioning
restriction
##cating
##ision
##sea
Decca
Whig
hairs
rid
sights
toilet
##fires
##̦a
Bowman
Meadows
SSR
approve
convinces
limbs
moisture
programmed
tears
tutor
##emia
##linger
183
Bing
Germain
Midway
Survivor
m2
oversee
surprising
##GM
##́d
Greens
Instituto
Marin
Rockets
Spokane
Triumph
consulted
dealers
dell
mast
Grass
Mellon
Spartans
cocaine
dwellings
preacher
pulse
quarry
##VR
##hong
Gonzalez
Varsity
fibers
##51
##LM
##fare
##nect
##retta
##tson
Camille
Frederic
conclude
##cta
##delity
Bratislava
Mead
Slater
attorneys
##MX
##erland
##taker
Bio
majors
peripheral
quarterly
##rolls
##rove
179
370
Brest
Castillo
Dion
Electricity
bottles
cemeteries
##rato
173
820
Basket
Gundam
algebraic
lip
spine
##mated
##tters
Mona
##UM
Finding
Blanco
Erin
mirrors
spectral
##dson
##itas
##rner
Fuel
digitally
settler
turtle
Merry
Safe
bestowed
clouds
defences
prefecture
##vant
207
Geographical
Kamen
conclusions
directory
grapes
neglected
protagonists
##eira
##ographer
##storm
Federico
Pursuit
Sahara
elevations
Submarine
creativity
##arate
##toire
##vist
204
Dáil
##bery
##ú
LL
Wanna
circulated
plenty
wonderful
##ylie
1800s
Bride
Hereford
1756
380
Allegheny
Doctors
178
Oracle
collaborator
exercised
##hani
Silk
airplay
##29
##come
##vide
Khorasan
hailed
tones
##ghton
RB
Sylvester
confront
er
reinstated
unused
IEC
Odessa
Turkic
Writings
ambulance
bail
genetics
oxidation
refurbished
##hay
Lacrosse
alloy
eternal
spiders
tombs
##escu
##evo
##orous
##saki
1300
Philipp
Theodor
chloride
convex
sake
socio
##dford
##logic
##ryl
Freiburg
abbot
arising
chips
contexts
##istice
##mble
##nbridge
##pf
##tise
Lac
Yves
oversight
##abe
##eran
DB
Ein
Haleakala
Triangle
fifteenth
##09
##erty
##inder
##nley
Gillespie
beans
winding
##VP
##lifting
##urated
##т
Vance
attracts
disco
fertility
maturity
##isans
##uito
Colbert
Exhibitions
Félix
ST
Shaun
amid
departing
lime
vectors
303
Sailor
Societies
beginnings
tear
Ch
McGraw
eastward
ideological
imports
##rcia
##rmal
194
Pleistocene
cage
shelters
ultra
##rag
##rals
##school
Galloway
lets
##hiva
##ulates
conversations
disappointment
jurist
landowner
##lak
bilateral
##usoleum
##vu
209
Nobody
Yoga
battleship
obviously
1757
Brewers
Gators
RC
affinity
genius
nutrition
prohibition
surge
tying
##ibe
##micide
MCA
Patel
committing
disturbed
overturned
Cougars
Fabricius
electrified
piston
stern
##ghan
##lett
Barnett
Leaves
attribute
desktop
scenarios
seminars
187
BWF
Bonaparte
Chocolate
Designed
contamination
##pelling
Minh
Velvet
Walters
derive
specials
##tir
Alba
Andrés
Highest
Himself
diagnostic
verbs
##UT
##wad
Abe
Bismarck
Pen
fuscous
propulsion
sanctions
Diaz
Rhys
Tobacco
Valerie
concession
convenient
curse
mantle
##TI
##aldo
Bat
Likewise
Sears
hostilities
objected
purchases
terminals
Dust
Eduard
Thereafter
algae
biologist
ladder
##ept
##eral
##lani
##marks
##sef
Levine
Summers
Tajikistan
Tbilisi
resorts
##aby
Hu
Methods
Question
Rank
bamboo
spouse
##vac
333
Committees
Haifa
Rubin
##ngen
Proposed
crystals
declares
owed
successors
##lbert
Kiel
Luca
Ryder
dignity
grip
Harald
Louisa
casual
reassigned
shade
tired
##NL
##each
##hora
##mitri
##ossa
##oya
##space
186
191
Chesterfield
Kepler
ambient
commemorated
supplying
##buch
##ently
Barnard
Caracas
Hapoel
Ra
restructuring
statesman
##kovic
##words
Addison
Aunt
Feng
Terrorism
Tomb
aft
orchestras
##ension
##reath
Anatomy
Baronetage
Claus
Advancement
Auguste
Hartley
Jaguar
Russ
Schuster
encoding
melodic
##poon
Amor
Magnum
Miriam
commenting
drained
famously
stationary
vendors
##53
##anti
##dhi
Feminist
Marjorie
Shine
businessmen
drummers
tires
Liège
Sage
drain
forestry
norm
symmetric
##roke
##wers
Caucus
Enlightenment
##VD
##mbling
##̆u
Arbor
Conquest
##alth
##gat
Prisoners
antiquity
moderately
plc
priesthood
supplier
##aires
Kris
RAM
assured
royalty
thoroughly
214
Bye
Proto
dub
grocery
passionate
##hane
##teau
Manga
attested
unexpectedly
##llon
##roduction
##rup
Asylum
Cruise
Sami
annexation
troupe
##bah
##caster
Barons
Glover
revelation
textbook
##bbs
##sable
##uca
223
Zion
preparatory
undisclosed
##eye
##ulture
196
940
FF
Paddy
Prophet
Purpose
##plant
Innocent
NZ
##YP
##did
##figured
##lander
##mán
##pled
Lola
berth
customary
inclusive
slated
volcanoes
##glass
##inn
##pical
Auditorium
Jul
Sign
hanged
Elmer
Losses
Patriot
grazing
shipyard
##athy
##rral
##rte
##sner
Rani
Brigham
Dickens
Endangered
Griffiths
Maiden
lords
replay
##formation
##glia
##held
##lix
##tists
##using
Ames
amazing
bilingual
harmful
melting
##urer
Africans
Dracula
Phelps
chronicles
infants
marries
Departments
Floor
Hair
Singing
ornamental
##itted
310
Fiat
Pam
carriages
engraved
unification
##ccidental
##rith
Graphic
Hodges
Stokes
##PM
##vka
Rosemary
Zeller
compressed
vicar
##current
##rington
189
Fruit
Nearly
vintage
warnings
##lone
##zad
198
Dominique
Guillaume
Shock
coconut
denote
noon
raises
tremendous
##chang
##̀me
Harrington
Mustafa
boycott
##sent
##stadt
##ος
Ciudad
Could
Dental
neighbours
poker
##scraper
Chip
Rector
monkey
##lena
##outh
##vere
requesting
spawned
##sio
##zano
265
Henrik
arrow
bust
Adventist
Bones
coincided
relics
##gion
##hawks
##hil
##ivism
AR
Wisdom
impose
lamps
##ods
Thanks
acronym
tire
##kata
440
Sul
XML
Participants
Sherlock
bees
desirable
##OX
##lley
1644
Castles
ruin
##37
##rone
Fulham
Twentieth
##plex
Bathurst
##sun
NGO
##hini
##iad
Astronomy
Diplomatic
Dynamics
Fest
Lawn
Levin
delta
fiddle
nests
sustainability
dividing
filing
workplace
Depending
Dove
Geschichte
Includes
Theatres
Calais
Eternal
Gardiner
Mir
frigates
illegally
##itrus
Crusade
Hate
RS
outreach
preserves
1727
Halle
advancement
forget
##chayat
##erton
Boyer
Gonna
Thatcher
Value
letting
onward
remixes
##eti
Nearby
Vita
##his
##names
##rten
##unce
4000
Marguerite
Memories
Monitor
Neolithic
Routes
Sardinia
entrusted
##steries
Kazan
Slade
Thirteen
Unionist
comparisons
epithet
hollow
insists
invites
sink
##cursion
##dified
##ivate
##obe
184
IN
Pieces
##acy
##mpo
##oux
##tiny
##yers
Few
Ordinance
sensory
##gaon
##ntiary
980
McCain
RPM
Recovery
Sicilian
consonant
##MU
##nee
##owa
##vez
Harvest
Kung
guys
##ikos
##morandum
##oran
##reis
##vili
Radar
Texans
calculation
frustrated
Commandant
contractors
explorers
##membrance
Fathers
Nanjing
Walls
alarm
archipelago
ceramics
##oku
Bengals
Huron
Macquarie
Parties
plea
sprinter
##otis
##wallow
Appointed
Brenda
Campo
capitals
recognizing
##poli
##rez
##tka
193
Childhood
Westwood
viruses
##tach
Organic
Scandinavia
influx
voluntarily
##grading
Atkins
Secretaries
upgrades
##aut
Indy
Willard
##rchy
60s
Turbo
angular
##skoye
2D
chat
commissioners
touching
##dina
##ridae
1689
Italianate
Scarlet
disturbance
profiles
saga
transports
##uroscience
##yd
Commentary
Connie
Montevideo
##eke
Pearce
bath
converts
##65
##mini
##rase
Companions
Maud
NFC
backward
favourable
ponds
##von
Kerman
Killing
##hone
##read
##rella
##urn
FAA
flanked
masonry
proving
stereo
unbeaten
##ées
##ively
Saxe
humour
observatory
plaza
##bay
##ishi
##mys
##rza
##self
BK
Futebol
ROM
analysts
cortex
ordination
##about
##bres
60th
Haas
Juventus
Majority
Orchard
Ritchie
polymer
##ube
Gerhard
Tolkien
defects
fourteenth
224
Apocalypse
Keynes
Kurdistan
Moor
courtesy
fried
##was
780
Penang
Stephan
Tiffany
captures
consolidation
divers
punished
##forcing
##gham
##mbre
174
Archipelago
Bali
Guadalajara
Vivian
abdomen
gamma
instability
unpublished
##chuk
480
Incorporated
Locke
Partial
Tripoli
artery
conceded
ng
presentations
supportive
veins
##rained
##rdes
##tted
34th
##cans
##rise
##zak
Blanche
Diversity
Vogue
jacket
##robe
##sir
##uses
Ezra
Histoire
Yunnan
blank
buffer
sounding
visually
##mother
##rrible
Tribal
##wrecks
33rd
Collier
Michaels
risen
##gro
##hasa
Forgotten
Pontifical
Rebels
landowners
##jos
Swindon
ace
exceptionally
gaps
Cyclone
Danger
Fargo
Sundance
Turkmenistan
fog
radioactive
sect
spanned
##eit
##lations
305
Everyone
Mask
Rand
ambush
needing
relieve
runoff
##spatch
AU
Benedictine
Billie
Him
Tyson
Vicar
arrange
susceptible
##pit
##vish
1720
Croydon
Danielle
F1
Palazzo
norms
##ndy
Café
OK
convenience
liturgical
motorcycles
prestige
protects
##acts
##hers
1710
Bloody
Matthias
Playboy
forthcoming
mistaken
yellowish
##scopic
##ße
35th
Audrey
Expansion
Photographs
cope
hears
trusted
##iter
##rrel
##tment
##tua
470
Compact
Duo
Gift
Rep
bye
commitments
posthumous
##oil
##rops
FL
Guillermo
campaigning
##poda
##vila
Colour
corpse
mayors
therapeutic
##gine
##oan
##phecy
pier
potassium
secrets
traction
##bid
##lver
Laboratories
premise
somehow
##ience
##rnet
##rung
Cricketers
cinematographer
diffusion
relocation
##bt
##elin
##xon
Exploration
exhausted
trailing
##graduate
##normal
##rateful
325
HR
flats
sad
##eca
##nka
Claudio
Tor
applicants
clinics
stronghold
##OA
##nea
##thus
Brewery
Duffy
Hume
Norwood
barrels
bombed
grandparents
greenhouse
intensified
weighing
##43
##isy
##phy
erupted
inventions
##HD
##ador
Audi
Producers
Silicon
Sinatra
coefficient
haven
scouts
surround
transporting
##ι
Baylor
costa
disastrous
simpler
##tera
1830s
Ely
Shark
Trenton
##leader
##odies
##rpent
##yō
##̈ber
##̦ti
255
Sc
farther
##ird
Fiona
Matrix
Tsar
Beaux
Scheduled
Sung
exclusion
internally
revive
##bush
##iq
Chico
Hove
kits
soup
##edi
32nd
Divisional
Pereira
Sovereign
Sparks
mating
squads
##ckett
##oise
##rque
##teroid
blades
##child
firearm
mixtape
##A1
##enne
##oit
##orf
##uns
##vity
##ygiene
1730
Sinai
capitalism
caution
descending
##rout
##unded
Gothenburg
Pioneers
organizers
##former
##iens
Edmond
Percussion
Swamp
auspices
##82
##BB
##tag
Damian
Message
Trieste
boots
geologist
handles
tent
vertex
yielded
##yla
Pastor
Rufus
industrialist
prediction
sa
stakes
##leton
##say
219
IS
Mutual
cerebral
##gman
##tooth
##track
Debbie
Incident
Terence
entrepreneurs
polynomial
##dges
##usz
##zal
Emanuel
pl
snout
##ienne
##ulator
Dora
Suriname
Transactions
prototypes
##eim
##esta
##hage
Sang
Souls
##agi
##mamoto
##relli
Phyllis
seniors
##cination
##ssing
Silesia
Xiao
Zionist
##gene
Rd
arched
pathways
##lé
Bloc
CO2
Organisations
Richter
electors
##voked
Faso
Poker
expulsion
screw
##pected
##vial
Collected
NH
Reserves
donors
morality
revolves
spherical
tile
##iella
##khtar
860
Communists
Effect
Holloway
practitioner
##gonal
Ira
Mariana
coaster
jumps
troubles
##aja
##diation
Gomez
Köppen
Lindsey
McKinley
clergyman
##VO
##rvette
##teria
1688
Martian
Maximum
Trip
incidence
interfaces
jealous
##film
##tama
Carla
Confederacy
Detachment
glacial
hymns
nobody
pumps
Bluff
Hellenic
Whether
colonization
crack
##aney
##cula
##rest
Bey
Qi
Slow
shareholder
siding
thumb
Audience
Bartholomew
TNA
##yuki
Antrim
Bangor
Carleton
Langley
Whitman
colorful
librarian
##39
##enbach
##llers
Airbus
Bloomberg
Gabon
Siberian
Swami
authorised
everybody
glucose
rooted
towed
vertices
##aneous
##ife
##olar
##tised
Larsen
bloody
rendition
republican
##aly
Deaf
Material
cliffs
cruel
mac
maid
shoulders
symphony
Enough
Rite
builders
illustrate
Rae
ascent
canonical
distributions
##ict
##iger
##mfort
##ocks
##ody
##ᆫ
Burkina
Straits
inappropriate
##lides
##tröm
1690
AK
Cindy
illusion
monitors
nursery
upwards
##eet
Polar
attain
cents
##ectra
##plified
Consul
accidental
graphical
livery
##endix
##ported
Held
prospective
realizing
surprisingly
Breakfast
Intercontinental
Madeleine
accomplish
apartheid
iPhone
prospects
sp
##erone
##loves
##phorus
Chronology
Dewey
##boa
##quential
##vigator
Ángel
Brewer
Daughters
Homestead
Lange
Nagoya
backwards
buyers
deliberate
##itzer
264
Bernardo
Eileen
Launch
Naked
folding
mediated
##ffa
Accounting
caretaker
supermarket
wooded
##otated
##rō
##tals
Jakob
Knockout
Spartak
Visitors
buttons
payload
perspectives
##52
##tender
##watch
36th
Burnley
amalgamated
bent
cartridges
landfall
selecting
wholesale
##ader
##brand
##cilla
##̦i
Bournemouth
Household
Suicide
booklet
eclipse
manifold
Armagh
Reggie
Woodrow
centimeters
investigator
problematic
##54
##cending
##cie
##nter
Cho
Roche
respects
senses
transverse
##minster
##orial
##ument
Blacks
Facts
emeritus
graphs
registers
##sler
##taining
##vances
##ła
216
217
Cowboy
Garry
Melvin
Paraguayan
##otic
42nd
Braun
flavor
pitches
raped
##biotic
##losing
##named
##ribe
##ов
Deluxe
Middlesbrough
Smile
Glamorgan
Guernsey
accreditation
averages
bullying
communism
concealed
consonants
ul
whales
##fighter
Emilia
Prohibition
Rat
bolt
##oshi
Fuji
Gao
Lausanne
crane
elongated
parallels
psychologists
##copic
##dong
##eros
##lite
Automotive
Bari
Consortium
ceded
##eong
Forster
Martins
Ware
Winning
empirical
exploited
mutant
psychiatrist
remixed
resonance
##dea
##wami
Address
Medals
conserved
impacted
optimization
pedal
reservoirs
Khalid
Zhejiang
aperture
archived
confessed
lethal
persona
separates
##ief
Rue
##SO
##nooker
##ych
Arturo
Cyrillic
Thanksgiving
mandolin
nasal
##jutant
Brass
Counts
Dual
Masovian
Preparatory
Sufi
Teenage
densely
differed
enclosure
simulcast
##47
##rolling
Cebu
Dmitry
Success
keyboardist
##volved
Evaluation
Tuscany
remastered
##hesis
Gemini
PBA
suppress
##stage
Cavaliers
Clemson
Herb
Navarre
Ta
USGS
amounted
catalyst
devil
glacier
loops
vernacular
##rek
Dickson
Pay
please
##eak
Cary
Mabel
##gn
##gol
##uc
Khmer
Ramón
assumptions
cylindrical
subsp
##rms
##ylus
Mussolini
Wolverine
bend
maybe
##fair
##lorious
##wala
Citadel
Dodd
NT
Pokémon
inn
legged
Kaufman
acknowledge
establishes
expose
fascist
stylized
##98
Donetsk
Oliveira
researched
##latt
Bolivian
Giacomo
Rockies
minimize
objections
superseded
##eds
##eter
##lette
##ия
Meridian
Painters
erotic
fulfilled
stellar
##asis
##ceptive
##elly
##hta
##ordinating
Lim
burns
ensembles
linguist
murals
sanitation
travelers
weaker
##stead
##xus
1620
232
Laser
Pistol
canopy
compelled
dictatorship
incorrectly
italics
picnic
##SV
##bial
Lena
Psychotria
Sparta
prosperous
##arney
##av
##ggins
##road
1643
802
Lal
Tobias
impaired
preferences
##yin
Homeland
Jaguars
Plato
RAAF
Wonderful
##ël
##ganj
##jana
##sies
Buffy
Consolidated
conditional
meaningful
##ivision
##ounced
##prints
##wehr
##zef
Burgundy
Luciano
lyricist
melodies
##activated
##cture
##lded
Bin
approximation
exploit
mad
subdivisions
##riot
##yton
Bliss
Dub
Kemp
Ribbon
Sergey
intends
recorder
##gara
##roth
Ballard
Comet
Gram
Pirate
deficiency
raided
##CT
##lack
##train
Aleksandr
Feeling
Lovers
Wrong
justify
scrap
weighted
##chte
##firmed
##joy
Competitions
Destroyer
Kern
ch
reptiles
##GI
##xious
Aziz
Julien
anarchist
bleeding
##istan
##urious
Bharatiya
Cheryl
Melanie
Mister
Wire
col
collaborators
curated
diamonds
psychedelic
##ames
##cz
##yak
Find
Judiciary
Lauderdale
grounded
liquor
roadway
unconstitutional
##fill
##liding
##mart
##mour
Delegates
Prescott
forged
Luzon
Nepalese
Pi
alliances
nouns
searches
Hokkaido
Hutton
Reef
Sunrise
Zach
endurance
##gall
##jak
##uate
Farms
Manfred
Memoirs
generates
projecting
sticks
##onds
##vious
38th
Dungeons
Hendrix
Infinity
Volvo
eighty
gentle
##bation
Gilles
Jeremiah
Ordinary
dependence
Haynes
shy
##bina
##mor
Judah
Ones
Wexford
header
##jective
Burr
Doherty
Jordanian
Riot
glasses
injuring
recycling
##ficient
##liner
Carthage
Guiana
Inland
Pa
Sentinel
Talmud
logs
tuning
##encing
##jong
##olio
##vignon
Clint
Juno
Nikola
Occupation
Parachute
brush
slang
##fant
##vitation
##yt
##̧i
Bugs
amenities
aux
float
vaccine
##linear
##listic
##nage
Dirk
Shandong
Turnpike
bathroom
div
hormone
sic
suggestions
##quisite
##tivity
##uben
1661
Adriatic
Promoted
disguised
monitored
##lata
Guido
Gupta
Meat
Vanguard
brackets
emphasize
fatalities
fins
offences
replaces
Bean
Convent
Parramatta
commemorative
##ici
silicon
walled
##AO
##aar
##seen
##uest
1714
231
Len
Practical
Smoke
nationalists
Associations
Inquiry
Pony
pertaining
##imes
##ject
##kovsky
##tri
##ulous
MX
Users
abbreviation
cigarette
definite
wires
##mass
##shah
##than
Songwriters
compose
elephants
glider
senate
##patrick
Dortmund
Enrico
Kobe
Rowan
Victims
frontal
popularized
##hibit
##́rio
Antigua
Contact
Personality
Saturdays
asserts
exemption
##lab
295
Bahadur
Chichester
Graphics
Gunn
Pit
Rowe
coincide
disagreement
haul
hydroelectric
ribs
##antic
##ometric
##tung
Ducks
Equality
Franks
depressed
differentiation
executions
formulation
##PL
##jou
Chaplin
Everest
Marianne
Markets
Till
apps
aus
gateway
##71
##CI
##DT
##aran
##herence
##lwich
Hunting
remarried
richest
severity
##gible
1747
Collector
Synod
Telecom
cousins
weights
##tails
1749
Drawing
Linden
Naomi
Satan
anymore
energetic
recognise
trader
##ented
Anhalt
interfere
##boys
##eting
##iinae
##ltration
##spective
drains
hearings
pornography
##flight
##vour
Dar
Does
Hazel
Luton
Mecca
arrondissement
##ango
##lect
##llation
##oja
227
MV
Masonic
clad
état
translate
##vard
Ranges
criticisms
heats
##VS
##tl
##tras
convened
disciplinary
weigh
##bio
##gang
##regation
##̨
Erwin
Foreman
MAC
Tier
butter
calculate
convey
##coon
##erus
##gby
Falling
Gaston
compartment
deserted
##classified
##hiskey
##lom
##sband
cite
pagan
233
Hemisphere
Mechanics
Milford
Wentworth
babies
eccentric
lawsuits
pillar
##TL
Cambodian
Specifically
cannons
coronation
engagements
topology
##VI
##bedience
Blanc
Characteristics
Fanny
Nuevo
barrister
blessing
halftime
mapped
##61
##actor
##nine
Augsburg
Beard
Brentford
Maldives
Patriotic
ashes
##lean
##tries
1746
ABA
CH
Cause
Krai
Saskatoon
imposing
negatively
unemployed
##dl
##gri
##ssel
Diamonds
Éditions
Ling
organizer
##lection
##llan
##nesia
##oman
##owitz
##phers
Dairy
Flow
Loan
Phone
biodiversity
gymnast
inflammatory
transparency
une
##collegiate
##ssip
##tropical
Göttingen
Lakshmi
Nairobi
Specialist
undertaking
##agne
##gged
##poulos
##ricular
##uity
Gilmore
arises
competent
ridges
##̀ge
Genocide
Savings
Therapy
Yong
freezing
minors
##emon
##hak
##rava
##viour
##zas
BAFTA
Jared
Metropolis
goat
##cumenical
##ndes
Siemens
cups
hearts
kid
noteworthy
nude
possessing
Dolly
Dyer
Nike
bubble
exits
forensic
petals
warns
##bri
##urd
710
Alternate
Optical
reasonably
swamp
##alle
##bard
##eological
##etal
Sachs
##raw
##ن
Crowley
Crusaders
Lille
Scoring
Softball
Theo
ecosystems
jam
shelf
webpage
##LD
##iture
##loading
Axel
Been
Morley
##67
##mantic
##yung
1645
285
Bose
Craven
Drop
Motorsport
MySpace
Ways
bullets
kicking
##OH
##tō
##urance
Moment
diver
mosques
populous
##57
##rades
Annapolis
SG
Wolff
derby
##rland
Behavior
Punch
Transfers
checked
rolls
Brick
Massey
Ptolemy
entrances
routed
shear
##lux
##puram
##̂tel
Breuning
Fungi
Gail
Guitars
augmented
##tube
##゙
1680
Slovene
Ulysses
analogous
prevalence
##kat
##plate
Authors
Cory
Rage
Ventura
famine
qualifiers
##icide
Katz
affection
cane
preseason
versa
##eae
##eased
##stis
##tite
Homes
Kabul
Macintosh
abused
celebrates
deed
embraced
##aps
##éra
##yler
Dad
Dino
Rollins
Sanford
Troops
assistants
discarded
inconsistent
sulfur
waterfall
##BO
##grams
##hesion
##mentation
##ogie
##worm
Variants
breath
panic
sympathy
tuned
##neck
##rease
##topia
##torial
##zor
Dot
FIS
Prospect
Salvation
divisional
##ehan
##ivist
##lour
Goddard
Paige
Registration
abruptly
contaminated
##ronic
Ashes
Calhoun
Carolyn
Helens
User
planetary
##dron
##isfactory
##ticus
##weiler
Divinity
Lunar
Warrant
conquer
emerges
##ditions
##hul
##kova
##taro
Amnesty
Barnet
Drugs
Olympiad
Slim
fcc
seizure
unavailable
##ancipation
##bha
##nded
##ndor
##sist
1748
AN
Rehabilitation
Yates
coasts
facilitated
reluctantly
Artificial
Cristina
DVDs
KC
Rashid
Romano
shootout
##Works
##mism
##morphism
##ría
Sampson
strikeouts
##rsten
Abrams
Torre
Tribes
comune
doll
occupations
##TF
##iji
##rgan
Dunbar
Inverness
Justices
agreeing
amalgamation
##hate
##ité
##leo
Malmö
ambition
##iza
##reta
Cheyenne
McLaughlin
Nero
Peacock
Telangana
Wolverines
clade
termination
##EE
##XT
##mous
Crambidae
Nr
Semitic
economies
quasi
##phi
##piration
##ptive
245
460
Dialogue
McDonnell
dirty
doping
##aret
##nau
238
Lay
Matilda
McLaren
interventions
mit
reviewing
trams
##food
##ranged
Akbar
Cavendish
Dancer
Munro
initiate
lesions
theorist
##verted
##к
##ы
1741
680
certificates
foil
render
##elf
##phin
1625
Editors
Flame
divides
generalized
1642
Flags
Fool
Mon
Scenic
Subspecies
Wehrmacht
feminism
prevailing
##ellate
Creed
Stefano
Symposium
edged
fixing
knighted
recommend
##data
##egation
##sum
Beaufort
anthropologist
filters
heroine
parole
react
##lva
##stick
ben
lending
proclamation
##rassed
##tire
1685
39th
Armored
Beyoncé
Egg
WR
destined
proceeding
sediments
##boarding
##khar
1722
Lies
apology
fencers
utilities
##latz
##voking
Cathy
Fairbanks
Finalist
Graf
Integration
Veracruz
Worship
genetically
programmer
##bari
Experiment
Hanoi
Leisure
Venture
carpet
##88
##nai
Canucks
Carlson
Ching
Knesset
Morrow
consume
fortunes
rains
te
unite
##haling
##hey
##ricinfo
##zów
Curriculum
Neighborhood
demos
inflicted
lesson
orbits
##points
1630
Quran
continents
formulated
icons
potato
sorts
sunlight
##RD
Barnsley
Loves
invisible
patriotic
##cule
##gno
##vit
Dhabi
Jiang
Papal
diverted
slowed
##hdi
##holding
Amiga
Maureen
Object
ego
##ahl
##fon
##ouk
AMC
Gdańsk
Woodstock
Zheng
benefited
collaborating
compensate
confession
emphasizes
ji
ministries
violating
##tini
##uen
1751
##nerable
Étienne
München
Vanuatu
Whole
propose
swords
##dridge
##ropriations
242
Arm
Mariano
Medici
Schiffermüller
Wills
boilers
midway
A2
Auschwitz
Hernandez
Refuge
UD
denoted
longitude
retailer
thorough
##ccio
##tile
Chun
Huskies
Miocene
Steiner
Wilkins
advocating
periodically
pigs
##CU
##HR
Highlanders
choreography
horizon
##aur
Barrie
commemorating
crafts
kicks
##jas
##kam
Tall
Window
contention
deeds
##spiration
1100
Equal
NGOs
Trilogy
Typical
Zeus
sampled
telegraph
##esa
Horses
Marlborough
anyway
consistency
gravitational
innocence
##apa
##aws
##oko
1752
Available
Babu
Bois
Gough
Kilda
SBS
pulp
reconciliation
reinforce
transforming
##SN
##iber
##luster
##ponents
##yster
Bahia
Cass
Tata
caring
turf
##lino
Fernandez
Internationale
Olson
destroys
##rowing
##́c
MCC
Tanner
counseling
Examination
astronaut
bracket
juice
##genesis
Jarvis
NDP
Neptune
Retired
playground
Libertarian
Samurai
overseeing
seminal
##ascism
##tribution
Blaine
Henley
disciples
transforms
##85
##abilities
##nington
Prakash
Quick
Samson
Tomas
textbooks
##oxy
##zuki
Gujarati
Leaving
Moose
Pont
Tory
Yvonne
consuming
##gment
##iera
##loom
##onte
Cyclists
Gina
Rana
Viva
bandwidth
domination
reactors
##giri
Charge
Revelation
desires
##bbe
##continent
##tland
##uron
Bertrand
Neumann
Roanoke
adaptive
crazy
jumper
sensation
##59
##saurus
Codex
Edna
Pick
hazardous
Copyright
Robson
modelling
##cam
##usive
Joaquin
Linguistics
Parallel
connectivity
lectured
pg
##dir
Seas
Warrington
ballistic
negotiating
##ulinary
##urlers
Enfield
##phyllum
##sław
Rolf
Togo
fumble
tablets
##ás
##eurs
##keepers
Alzheimer
Freeway
Ju
RF
compelling
niche
nutrients
repealed
##kla
##lard
##ples
234
Dal
Lund
##LL
##disciplinary
##drick
##hyl
##̄d
Aleppo
Gettysburg
Ghosts
Virgil
banjo
butterflies
collaborate
ii
touches
##gre
##nney
Academia
Boundary
Ellington
Kyiv
Registry
inclined
liaison
nautical
pamphlet
rejects
retaliation
strokes
##aving
##fulness
##pack
##utes
Aerial
Calder
Essential
biographies
mounts
scheduling
##PR
##etum
##rred
##ssler
##ysis
Sense
responds
##imov
##olm
##rdon
##ulla
##vern
Happiness
Titus
battleships
doubts
##62
##rrick
1649
1742
Hatch
Johor
Polly
Rest
Wiener
cadet
grief
inactivated
##CR
##ophora
1743
MAS
dinosaurs
nowadays
##ahi
bet
pivotal
preview
searched
wolves
##nical
LED
Weeks
mechanic
undercover
##mity
##̆lu
Buster
grains
initiation
##fera
##hism
##puri
##yme
Hilary
Kidd
##ançais
##inth
##jack
##sad
##scence
##spect
##tella
##working
VP
Which
tanker
##cute
##raph
##̌ka
228
Calling
Equity
Falkland
Opened
Skills
click
##pire
##stituting
410
Berwick
Inspired
Qualified
Roach
Wrocław
fullback
mater
##ety
##owing
1744
Elijah
Put
Root
Suez
Survival
Tiny
Zoe
betrayed
deprived
imminent
solicitor
##fiction
##gart
##isi
##tya
Beacon
Certified
Duff
Motorsports
Rosie
Wanted
dull
invalid
predominant
##anga
##iaceae
737
Alpes
Changing
Civilian
Earle
Finch
Fringe
Leroy
Logistics
Sabah
Torino
Wonderland
##ediatric
##kong
##told
Reign
Thinking
disciple
##eys
##lative
Contents
busiest
cadets
drift
##chu
Aubrey
Goethe
Meg
Ty
encompassing
tandem
##anche
##fighting
##rought
##wold
Luck
evenings
jailed
##alogical
##plin
##rud
##uh
Judo
Livingstone
accordion
aids
hardcover
mythological
pulls
traps
##95
##bsession
##hne
302
Champagne
capitalist
packs
##arna
##icient
Avalon
Dai
Dams
Hagen
Strings
laureate
mistakenly
spontaneous
##mbs
##vana
Partner
SO
turtles
##chaft
##coa
##raphy
##reo
Fallon
Mortimer
Nicky
analyze
interpreter
newsletter
upward
##NK
##gge
##icides
##same
##ttering
Endowment
Leary
Spurs
Underwood
convictions
rhythms
##cane
##fari
##gha
##odus
Automobile
accusing
bbffbb
brownish
faculties
gig
judgement
proliferation
##chair
##moon
##sine
##vanna
226
Closed
Meadow
Una
jets
##kley
##mana
##tiana
##xe
tap
##cess
##duce
##holes
##lature
##lese
##locked
##nner
Frazier
Stores
Wen
alumnus
brigadier
bundle
contender
indicators
solidarity
urine
##amel
##dalen
##uerre
Forests
Harcourt
Yerevan
analytical
ants
basket
insane
longitudinal
scan
##OE
##patient
1603
landslide
pork
##cracy
##sitic
Brasileiro
Champaign
Seychelles
firstly
frogs
grouping
hides
smuggling
##bottom
##lices
##uche
Coordinator
Stats
Stockport
abuses
charm
##dev
Bells
Cullen
Havilland
Lego
Léon
Ogden
Parents
Ramírez
coil
lent
matrices
##81
##eves
##hila
##lator
##rchen
##ryce
Fender
disliked
embrace
neutron
quietly
##ifiable
##pelled
##ype
Crimes
Frog
relocate
##cipe
##eze
##ý
##̈ger
Anglia
Madness
schooner
simplicity
southbound
yes
##stable
Harrisburg
Prelude
awaiting
disagreed
modify
warn
##49
##CH
##nets
##ustrating
Accolades
Desire
Staten
dots
ja
lobbying
##mesis
##orax
##umba
1701
Baird
Casting
Debate
INN
Ni
articulated
preaching
##96
##arn
##eller
Composers
Follow
Micro
Panic
Portable
TT
correction
liable
statutes
##pon
##zquez
Grimsby
Iberian
Keyboards
Palestinians
Pig
buyer
furious
tails
typhoon
watts
##eres
##̄r
Councillors
FIVB
Fusion
Ignacio
Veterinary
sacrifices
##aic
##aine
##breaker
##crat
##cton
##dant
##lime
##lops
##nique
Parry
Sud
UHF
fielded
policeman
stricken
##aroo
##crats
##hining
Cinematography
Income
interpret
intervene
mystical
noir
offenders
pile
##ordination
401
Operas
Pas
Tirana
prefers
terrace
##esses
Ah
CAF
Eastman
Palais
fisheries
precedent
vows
Lenny
Speakers
WWII
enhancing
flames
##III
##bner
##cera
##kell
##urry
Botany
Levant
Minority
Missions
Schultz
Thorpe
liberated
referees
sharks
##91
Fallen
induce
literal
mastered
playback
reelected
##erine
##oese
Catalog
denial
infectious
stimulus
##iable
##ibration
##rog
##́la
Burroughs
Ghent
Judd
conscience
deteriorated
efficiently
slots
£2
Marquette
Zaragoza
fluent
practised
specify
turnover
##meyer
##rger
##urai
Algiers
Tango
bordering
##63
##museum
##oasted
Classes
Kamal
Maharaja
Subcommittee
ambiguous
esteem
painful
routinely
ventilation
##hein
##vio
311
Lehigh
helpful
##bble
##hiko
##plicate
##sect
##tori
Burger
Severn
antique
automobiles
clone
dinosaur
enjoying
enthusiasts
harmonic
succeeds
supplemented
##rdy
##wamy
540
Cinderella
Custom
Editing
Featuring
Liechtenstein
Narayan
Revue
checking
ineffective
umpire
Boxers
Maker
Signs
delicate
faults
grassland
lizard
staffed
##rators
Diving
Elgin
Maynard
Murdoch
decomposition
marsh
plagued
stabbed
terminate
turrets
##ael
##lution
##marked
##ppose
Lama
Waste
disguise
uploaded
##bilization
##kker
Bray
Consulate
Jericho
Meiji
baptized
potatoes
##location
##ın
##̀ve
Motown
diplomacy
gangs
implicated
syntax
##cure
##gery
##koto
##pathic
##uraged
Passing
backdrop
fracture
°F
##raphic
##zai
Designer
Kildare
avid
comparatively
responding
wavelength
308
Muir
NW
accumulation
attendees
chased
compiling
inverse
narration
owning
staple
unpopular
##IH
##tinuum
##xing
Defeated
Hawthorn
Lecturer
Struggle
deposition
infringement
masks
rabbis
##bola
##chemist
##inson
##nking
##orio
##tzer
##ugs
BR
Como
Gaius
Gareth
Handel
Mustang
Rees
Storage
Suburban
aristocratic
indicted
malaria
##fur
##ilia
##illon
##nting
Abby
Bloomington
Lyndon
Mainstream
Peck
Siena
capacities
northbound
rabbit
yourself
##awn
254
Bolt
Essay
Mean
Sonia
haunted
splits
wingers
##igate
Authorities
MBE
Marching
Miners
Rusty
Westchester
feminists
mosaic
##bilized
##ogeny
BMG
Ventures
dig
importantly
packet
sociologist
stripe
##family
Cayman
Manny
Nakamura
Petersen
Regarding
Stamford
climax
electromagnetic
incredible
woodlands
##omba
##rera
##vate
241
Conception
Documents
Partizan
mock
motive
smell
##igi
##uveau
239
Asiatic
Cargo
Connolly
Hooker
Monetary
Nationale
Primetime
calculus
myths
quota
sack
transitional
##kala
##ldi
##trap
Invisible
Mindanao
Serge
Syriac
fuels
vertically
##berman
##citation
##rsa
bids
café
##77
##eber
##orms
950
Account
Argyll
Migration
Orr
Pet
tightly
##68
##cini
1725
Haley
Shu
Sting
blessed
goats
hairy
##eline
##oris
##wark
Biennale
Digest
Individuals
Moral
collided
cosmic
prevailed
stepping
##eling
##erved
##nio
Abstract
Celtics
Doctorate
Sai
diagonal
joints
minus
shortest
##gles
##mad
##vington
Ad
Ernesto
Peninsular
Reporting
cfc
detector
encouragement
notified
##hashi
##meister
##rien
##sional
Mara
Mari
Patty
Vila
flux
pleasant
ridden
și
##rust
Akira
Wizards
Zimbabwean
differentiate
handsome
headmaster
salaries
subjective
##chism
##hre
##ка
Contributions
Dash
Gambia
Seeing
affirmed
relying
##89
##kus
##lingual
##uded
Lai
Revised
absorb
honoring
##grating
##iche
##lac
##roots
Armand
Lombard
Shelton
invading
motives
unfair
##FE
##olescent
##orne
##phate
##reh
313
Hybrid
Soil
Somme
Urbana
ambitions
emigration
##ilized
##plied
Accordingly
Eugène
Hear
Ke
ditch
justices
tumors
##ggle
##rche
##varo
Bedfordshire
Cicero
Cochrane
Hilda
Weight
breakup
textiles
Joker
Meteorological
congestion
envisioned
invade
magnificent
##azed
##ecia
##llet
M1
dangers
parental
2d
430
Christy
Employees
Extraordinary
Fleetwood
RIAA
Simulium
Testing
frustration
gesture
improvised
##fers
##ricted
Faces
criticizing
inventors
lawn
pilgrims
prophet
##lised
##nife
Doubleday
Ecuadorian
Patti
Processing
postwar
rites
##Star
##tris
Em
bite
corrected
##ación
##fference
##phila
##skar
##tensive
Gong
Graeme
McCormick
confinement
totals
##Script
##history
##omic
520
Curse
Damien
Guardians
ICT
NGC
Waltz
adjust
culturally
dove
heiress
imply
masterpiece
rhetoric
##56
##lanc
Jürgen
misconduct
##Ms
##wati
Alvarez
Dietrich
Handicap
Rosen
Succession
Sweeney
Tao
submissions
##heat
##larity
##roo
##site
##tons
Donegal
Unlimited
alma
inevitable
unwilling
##̂tre
315
Bingham
Doll
Sheep
Uppsala
announcers
rigorous
scattering
##coach
Goose
cry
sweeping
##good
##ingdon
##sca
Adobe
BWV
Doctrine
Ebert
Gaga
blew
explanations
pornographic
remnant
##alism
##cata
##sboro
##tute
Cerro
disrupted
insurgents
##grarian
##isers
##itating
##onet
262
Cascade
McGrath
Suit
Unix
progressively
##uding
Feast
Sabbath
coupling
sewage
shrubs
##frey
##plain
##ulum
1713
Communion
SAS
Vote
dir
##ags
##arma
##mur
##orm
##rias
251
Groove
belts
chronological
docks
novella
##odon
##xes
Arroyo
Hobbs
Infinite
Kaplan
Nueva
Reunion
Saw
Tokugawa
modernist
orthodox
##dders
##liptic
##mire
##ricana
##usly
Baroness
Pieter
Rowers
Toulon
cylinders
taxonomy
##pland
243
321
Gérard
Hotspur
Remote
Spaniards
Telescope
crowded
eager
physiology
totaling
wrist
##92
##UN
##ays
##icle
##kim
##uating
1735
CSI
Capitals
Pensacola
USDA
capsule
resembled
weekdays
##powder
##terus
1739
Brands
Hunan
Newmarket
Reach
Rooney
Shipyard
directional
lucky
nesting
rink
vaudeville
##97
##eenth
##kti
##sound
##virus
Arcadia
PasseriformesFamily
retention
undrafted
##died
##ocation
##rites
247
286
720
Shreveport
prostitute
##grade
##kina
##logie
##mé
##urst
Compositions
Maitland
Picasso
WNBA
cache
coated
mates
prepares
shortlisted
strains
##spense
Katy
Miscellaneous
Whitehead
episcopal
utilizes
##hered
##ismic
##sures
##zov
1723
Came
Fiesta
Iroquois
Them
comedic
gentleman
oils
##elman
##raus
##rench
304
Cream
QB
graffiti
headline
northernmost
subgroup
##TT
##iator
##liest
##stand
Chao
Kobayashi
Rhône
physiological
sighted
slalom
styling
##à
##cimal
##mento
##rei
Commune
Domenico
bravery
dem
discretion
guarded
leak
mined
presiding
##enter
##ianus
1708
Tanaka
delle
##rrified
##tide
Johnstone
Opinion
Poverty
Worst
query
##cidae
##ckley
##iso
##pulsion
Friendly
Geometridae
Madden
Navarro
WHO
Walden
distinguishing
suppliers
trait
##digo
##inia
##stor
1679
Gentleman
Herrera
Rory
Screenplays
conjecture
distributing
inhabit
seldom
##wives
Created
Gala
##mott
##mple
##passing
##utz
##vance
Councils
Featured
Gladstone
Grants
Groningen
Intellectual
Ratings
prosecutors
##gami
##lta
Guo
assaulted
axes
inverted
prosecuted
provoked
rage
yoga
##pute
##ropriation
##sphere
##zac
Kathryn
Revolt
chimney
forums
##6th
Muse
NE
Pace
Representation
Wait
preface
squash
verified
##abi
##hyme
##sang
Anatolia
Elsa
Kick
Ku
Syndicate
downloads
farewell
hemisphere
surgeons
telenovelas
universally
##bark
##ikes
##ivers
##talk
Cheung
Lucknow
Oro
ant
oppression
robotic
##rni
##roid
1702
Crafts
Rochdale
attends
intending
priorities
reinforcement
##eel
##tible
##ynthesis
1670
Athena
Mongols
Quiet
Shipbuilding
Theoretical
hood
montane
##mulator
37th
Defender
Shepard
abnormal
expectation
subsidies
##cona
##iovascular
##mical
##rique
##ván
BB
Hornets
NET
arithmetic
ensued
periodicals
reprised
##feng
##look
##quence
##rbonne
##rophic
Casablanca
Orton
audit
dash
ratios
##aternity
##drum
##mio
##tized
Labs
Stony
belly
##omics
Gypsy
Lombardy
Marlins
Peng
bonding
clinched
foothills
glaciers
piers
rotor
##lacement
##lika
##tches
##undo
##woods
999
Alternatively
Barre
Courage
Cow
Export
Pyramid
unitary
##87
##chanized
##cursions
##grounds
##mett
##nye
##ynamite
##zle
Invitational
Légion
Saratoga
boroughs
ensures
examines
lbs
##UR
##champ
##dals
##guration
##ower
##pio
Mannheim
Provost
Woodland
fused
synthesizers
##cola
##krishna
##rou
##taff
1734
Chiba
Jude
Voting
Waller
expenditure
##arily
##cchi
##stance
##uise
312
Dinner
Grounds
Odd
Videos
##nach
##sheim
Carole
Muller
Nico
OR
Wilder
cigarettes
euro
inflammation
##horse
##justice
##llin
##salm
1641
Dynamic
Exile
Harrow
Mazda
Purcell
humidity
wonder
##yna
Dogg
Île
Restaurants
Sirius
commissioning
loser
tentative
##gnum
##while
1610
Aspen
Broughton
Donaldson
Marius
disappear
ho
randomly
taxonomic
wishing
##ulence
Aarhus
Cognitive
Magdalena
stakeholders
##horpe
##pect
##petual
##roon
##rya
##vering
##zman
Athlete
Ballad
Eat
Questions
Qur
Toro
fond
mayoral
transplant
##liche
##rke
Ugandan
Vocational
pledge
rests
##hlon
##phans
##roft
##uerra
246
frontman
originate
##DO
##bold
##ceived
##lera
Bosch
Matters
Monty
concessions
crust
directorial
evidenced
transmit
##bé
##valence
Graz
Konstantin
Lansing
Lightweight
Padua
Pharmacy
Racehorses
Zeppelin
anthologies
mainline
puzzles
spray
trophies
##KS
##hae
##inga
Bas
Hoffmann
shale
storylines
##RM
##esi
##ntry
##opods
##ximal
Johanna
estuary
salvage
scaled
##78
911
Armor
Cam
Compared
Freddy
Hamas
Natasha
Shetland
controllers
overlapping
sourced
##jō
##mona
##ndon
1724
287
Andrena
Institutional
Rutland
townland
toxicity
##bai
##én
##logies
##yson
Albrecht
Dev
Sleeping
conflicting
evolving
mercenaries
throated
##iars
##rading
##rling
##rück
##urological
Brewster
Helmut
Maxim
Ritter
Shenzhen
Yusuf
disclosed
hatch
lithium
##laid
##listed
##rises
281
Gabrielle
Putin
exploits
##cended
##cling
##mash
390
Deacon
Fordham
Marta
Offices
Sudbury
Worker
assessments
craters
lions
moniker
rehearsal
##hog
Hurley
Yourself
configurations
##acon
##cier
1732
NA
Paraná
morale
neutrality
##WI
##formatics
##obic
##rwood
##theon
Albanians
Locomotive
Mirage
Mueller
Nan
Witness
psychic
##radle
##uram
Bellator
Loving
Packard
Ports
parted
##cap
##git
##kali
##khan
##lante
##pecker
##trix
Jesús
Palatine
Rays
sediment
##hei
##hesive
625
Fukuoka
Jens
Lan
MG
Nair
Tenth
awarding
mythical
prostitutes
vapor
##ddin
##ifications
##lew
##lts
##ntial
##scribed
##yres
Butte
Clash
Darmstadt
Ewing
Guadalupe
Heller
Hunters
Jiangsu
Metz
Plastic
Resurrection
Yin
cf
manually
sprinters
tsunami
##aris
##castle
##esan
##science
1737
Ambulance
Birch
False
Hung
Scores
Turtle
landlord
needle
reigned
##ruk
1662
2021
Pact
manipulate
superiority
##bang
##oat
Jarrett
colt
endorsement
equestrian
recession
##NO
##eder
Aces
Bromwich
Scranton
Styles
Toll
Vinci
aerospace
assert
incentives
obstacle
washing
##PO
##edo
##ngeon
##ryo
##́as
1638
620
Frédéric
Interim
Mart
Moldovan
expecting
##79
##nitz
##quay
##rising
244
Clancy
Controller
Deco
Jing
Okrug
Redesignated
Schubert
Sharif
Taste
Threatened
accompaniment
fatty
kinase
limb
weren
##69
##now
##stroke
Faust
Fielding
daylight
imaginary
legislator
mutually
##celli
##esis
##kei
229
Galveston
Mouth
paradigm
##300
##appa
##cologist
##tang
##upon
##vos
Stages
bowls
electro
##ā
##gé
Aquino
Benito
Participation
equals
printers
##bron
##natural
##rood
##uckoo
Genetic
Jameson
Launched
Markus
ON
Vintage
appealing
enduring
pad
restrict
vitamin
weaving
##broken
Opus
Premiere
Pretoria
Reaction
Slavery
Themes
doubling
fantastic
##83
##ignment
##nall
##sat
##zell
Olaf
Researchers
artworks
blowing
defect
paramilitary
pseudo
saloon
##84
##ceras
##imeter
##kay
1733
236
Bacteria
Fitness
Forms
Incumbents
Lau
cafe
cancel
canyon
consoles
envelope
investing
##crest
##kra
##mperance
##rities
##sets
Aggies
Contract
Elm
Schumacher
Soto
oblique
##ials
##lax
##ondo
1654
Ahead
Comments
Derrick
MiG
churchyard
justification
##ental
##finity
##uction
252
Batting
Ingram
Sahib
Sailors
Sheppard
Someone
Ville
convergence
emperors
prejudice
##acity
##rls
1675
António
Earls
Hawker
Immaculate
Lilly
compiler
emotionally
interdisciplinary
renew
##arse
##erd
##uze
Stacy
chronicle
honneur
proportions
##augh
##kato
##ltz
##ression
##tat
FX
Hari
Lex
disruption
inspire
lungs
multinational
##dens
##ifolia
##lizzard
##omb
##rave
Cadillac
Monotypic
Serra
Tianjin
akin
altitudes
chemists
dragged
illuminated
##Os
##arns
Bayer
apprenticeship
assassin
burials
##gression
##nging
##stillery
Orkney
Pinto
Reese
Runs
Sudanese
Switch
scrutiny
##INA
##SH
##dica
##dorff
##erate
##quency
Potsdam
Yun
assemblies
basins
challenger
trench
##guards
##iba
##idad
##kko
##kou
##oly
##́ra
##̂te
1621
Conversely
Ideas
Investigations
MI
Newtown
Shake
cottages
evolve
parcel
pumping
underside
##LT
##lial
##otes
##quila
##rao
##roi
##viving
Est
Gibbons
auditioned
rallies
waterfront
##otype
##stortion
##zek
##−
249
Konrad
Monterrey
NEC
Playoff
Sha
Winters
coefficients
comedies
##arra
##eric
##ezer
##scent
##valent
Bridget
Ursula
urgent
##ä
##rore
##yce
Congregational
Fitzroy
Mysteries
Wilcox
excerpt
hostility
milestone
nowhere
proponent
sequels
shrimp
##edigree
##kiewicz
##ruising
Caves
Doo
Henan
closes
eyed
forecast
mankind
rainforest
##gelist
##jection
##oking
##proof
##xic
1718
Amongst
Argyle
Filmfare
NAS
Palo
Skull
Technological
Tools
giants
##NI
##bright
##tairs
1719
237
Anthem
Martyrs
dial
homestead
unlimited
##BN
##kur
##ppy
261
Claudius
Musa
Voyager
Williamsburg
adulthood
depart
inhibitors
interstate
kinetic
##parts
Civilization
Durban
Ferreira
Getting
Gladys
Whereas
herd
interiors
ministerial
primaries
wax
##58
##gold
##matical
##plicit
Bring
McIntyre
Views
schedules
spines
##fox
##haya
##ligent
##rritt
Bands
Genetics
Tortricidae
commentaries
eve
insert
instructors
pigeon
##dence
##gidae
##nsu
##rnett
Alsace
McFarland
Photographic
Starring
asphalt
lightly
##dore
##xins
1628
Decade
Gotham
JP
Wes
XX
bizarre
fishes
parentheses
pulmonary
repression
##dran
##jid
##onets
##smo
Futsal
Goldstein
Hyundai
animator
documenting
functioned
surveyor
##93
##dating
##ocytes
##onda
##rogen
##tled
##urate
##yote
Caspian
Cree
Macon
bowled
##aught
##lı
##rena
##vec
Bogotá
Capcom
Funny
Stick
bug
complementary
humanities
petitioned
##LO
##seller
Colonies
Discogs
Faulkner
Raoul
Texts
Tone
Unitarian
analogue
arrows
attackers
fireworks
marshes
##200
##TH
##drich
##raid
##uso
Adele
Buzz
Officials
Organized
herb
polished
thief
##KA
##aul
##imus
##splay
##ucher
##vasive
##wr
49th
govern
##fusing
##inet
##pore
Cairns
Constituencies
Gerais
Ras
Trojan
experimented
inputs
overlooked
##ggi
##gis
##rla
Ahmedabad
Khyber
McDowell
Wrexham
reproduce
threaten
weighs
##dda
##estive
##kman
##nist
##oun
##̈rn
Beau
Cher
Covenant
Minute
exposing
hostages
probation
treats
##ionate
##né
1550
273
Becky
Davey
Mahmud
Surgeon
automation
disadvantage
entertainer
##LI
##demia
##ducted
##ficiency
##iani
##kada
##sors
##uja
1717
322
Barclay
Bourne
Govt
Harlan
Hub
Marcelo
Mollusca
hazard
##cate
##hell
##riage
Banda
Chong
Corbett
Leach
Result
Wallis
Zombie
blogs
reliance
repeats
tramway
##ikh
##rrer
Bloomfield
Cards
Concordia
HTML
Haydn
Inuit
Jena
Serena
Titanic
cooperate
recipe
##enstein
##jian
##mide
1729
Bombers
Emerging
Mata
carving
hunted
knocking
predictions
##73
##cited
##phile
##urling
##кий
309
IK
Nadia
Southend
deploy
doses
invasions
medicinal
mercury
##EI
##World
##schaft
##vail
Darrell
Hannover
clever
disappears
progresses
recognizable
trusts
##hrer
##uistic
##vening
##weig
Coupe
Frankish
binds
metabolic
##dini
##entation
##nction
Bradshaw
Darryl
Goods
Salvatore
barony
conspicuous
swap
##000
##centric
##pira
##uartz
##uku
Correctional
Promise
highlighting
neglect
trailers
##inian
##kr
##tosis
253
Blitz
Émile
IIHF
Ng
Palma
Townsville
crab
nun
regret
repeating
sums
thriving
##BI
##rgon
##sence
##̋
Afrikaans
Bilbao
Tunis
realization
showcased
##74
##ivists
##pina
##tria
##urley
272
Britannia
Galileo
Physiology
electrification
##eba
##tun
405
Aztec
Gazetteer
Kaye
McConnell
Milne
RA
Springsteen
Synagogue
gymnasts
ins
modernization
penetration
spark
##urial
1659
Colliery
Courier
Dharma
Hawthorne
Nu
Proposition
Rotherham
Somerville
booked
fueled
quantitative
##76
##dang
##mists
Blast
Cha
Chartered
Motorcycle
Olympiacos
climbs
pants
sliding
southernmost
wash
##asing
##rney
##tio
Macy
Marylebone
Messenger
Phoebe
experimentation
preached
##hita
##lators
##pos
##̄bād
1629
Garner
boasts
brave
indefinitely
monkeys
##ligo
##pg
Cost
Damage
Hamlets
Warden
##aley
##lford
##linson
##rgent
##ributed
Heard
Showtime
lounge
occupants
plaintiff
residues
##hery
##lossom
##umps
Grover
Gwynedd
Nightmare
Unicode
Yacht
carnival
convict
geologic
warmer
youths
##arte
##chid
##fleet
##lank
1666
Apostle
Cyber
Dow
Gershwin
Mateo
Mohawk
Pisa
Quezon
Spence
boarded
essayist
explosions
fearing
##aceans
##dé
##falls
##romatic
288
Carver
Fabian
Gustavo
McBride
admissions
catering
compilations
drastically
mercy
metaphor
obsessed
tornadoes
##WD
##akes
Fay
Trier
judiciary
newscast
regulating
##ately
##dynamic
##eve
##lesh
##versible
1672
Aden
Albans
Cope
Gravity
Oasis
abdominal
microphone
noticeable
oversees
reefs
##Us
##arians
##gized
##kulam
##sique
##vica
425
Kellogg
Pak
Polydor
Reflections
Sasha
Southport
invite
phylogenetic
rite
##atics
##ddington
##laming
##missible
##rants
Caucasian
Nana
shrines
##tends
##wife
BCS
Lew
Ren
Takes
shoreline
##structure
##yards
Clause
Oaxaca
Participating
abusive
crafted
nominate
periodical
pricing
sorted
##arina
##arth
##mise
##osaurus
1653
Guides
Hahn
Tulane
repeal
uniquely
##glomerate
##nship
##powerment
Bel
Larson
Lillian
candy
halves
republished
##acca
##graphs
##igma
##nks
##rations
##rista
Jonah
Machines
Montagu
clocks
occupational
yielding
##actic
##chon
##lical
##mping
Butcher
Hodge
Nos
Tristan
confesses
recounts
##OI
##mica
##tek
##vies
##на
Kassel
blackish
prelate
tow
##BR
##aray
##chanted
357
Hellenistic
Qualifier
concerto
downward
mentioning
packaged
##athed
##oting
##rmed
##yat
##̌e
Rankin
Vojvodina
flattened
substitution
##llinger
##ratton
##zuka
1736
Gesellschaft
Ithaca
Mystic
goaltender
##alus
##auts
##icit
Chloe
Perspectives
Possible
Unions
Wharton
ejected
telenovela
##ither
##jević
##onist
##reeze
##sol
316
335
45th
Ayrshire
Destruction
Hamid
McGee
Raju
Reprise
signalling
##chine
##eiro
##genus
##lifters
Epstein
Lazio
MBC
Simeon
Soap
efficacy
inspiring
medications
μm
##alty
##anes
##eans
##oom
##suse
##tiv
Columbian
Futures
Ghetto
Jenna
Transition
computation
specialising
##morphic
##oum
##vir
Tex
negotiation
potent
##dents
##dering
##semble
##tography
Babe
Bromley
Instruction
Pipe
invaders
researching
whistle
##bour
##finder
##pont
##rphic
##upa
##xion
Clarendon
Countdown
Eritrea
Presentation
compatibility
leaning
surrounds
##iston
##onne
1709
Causes
Garth
Hidalgo
MEPs
Ono
Pol
autism
gigs
jumpers
sheltered
##dance
##eating
##gpur
##scopy
##sses
##wake
Caledonian
Chávez
hauled
violinists
##aghan
##came
##enius
##ladder
##tik
##uza
##vani
1704
Andorra
Humanitarian
Lowry
Lyle
française
furnace
mitochondrial
ought
purity
recaptured
rugged
##lka
##mun
##rics
##skin
Che
Corruption
Marley
VH1
deciduous
hut
selo
##Pro
##itting
Romani
bisexual
fashioned
gearbox
journeys
kilometer
projections
##VB
##aca
##iscovered
##ngle
1683
306
Amadeus
Bergman
Ping
Radcliffe
Royale
Shooters
Tornado
confirming
curious
perpendicular
phased
##aal
##dices
##ilian
##rsi
##taka
##tou
României
Serial
Tian
Trap
Tyrol
amassed
engraver
magician
reprint
waited
404
Crewe
Diseases
Isaiah
Possibly
Surgeons
U2
disclosure
federally
propagation
synonymous
toe
##nata
Ripley
Seton
boiling
coating
jewellery
##gement
##ihan
##olph
Activity
Bragg
Brandt
Christophe
Louie
Remington
plumage
##nite
##quired
##upe
##wab
Diagnosis
Quay
Que
Roe
Triassic
fronted
kilometre
manifesto
salvation
scripted
sensing
sexes
##9th
##crow
##friend
##lić
##roval
Alta
Anything
Butch
Keeper
aggregator
reactive
##mologist
##pheus
##vocative
Approach
Domesday
Juvenile
Martina
Mineral
NME
Preserve
Thuringia
Vida
auf
chords
economical
gunfire
migrant
pepper
priced
##chio
##church
##iot
##mills
##tero
278
Driving
License
Would
evangelical
straightforward
##FT
##ductory
##zier
248
Shows
Tunes
listener
lowering
##auer
##cina
##optera
##pani
1540
Brig
Colors
Cult
Hemingway
Jang
Narrative
SPD
Scientology
fatigue
1705
Dolores
Genius
IDF
Spot
commodity
reconcile
severed
##arat
##izza
##lise
##loch
##ssent
##tinent
##tze
Thom
Weird
alternatively
guiding
sultan
trenches
##ints
##oue
1738
DL
Protein
Significant
Whale
XP
ai
approx
groove
visions
##iste
##quity
Accreditation
Hawke
caption
citations
##ared
##eley
##enan
##loss
##mizing
##polar
##umes
Isabelle
SmackDown
Sykes
Trades
harvesting
killers
organizes
threads
##AU
##ease
##km
##strom
266
Neoclassical
Sixteen
Sonora
Squadrons
Sumner
Uniform
energies
honorable
neighbour
rods
topography
traumatic
##cephalus
##gong
##iensis
##irn
##nella
##tamweight
##ة
Fujian
Gonzaga
Hodgson
Jamal
Münster
fines
stimuli
syllables
##going
##mitage
##ogan
##rau
##ronous
##vine
Bullet
Calvert
Crossroads
Decatur
Noctuidae
Tau
V6
Vincenzo
ghosts
graded
heroin
wetland
##toring
##uld
##yper
Dolls
Libre
Pentagon
aren
corpus
ineligible
lining
##94
##petitive
##tration
##unas
##zog
1711
Absolute
Biodiversity
clues
headlines
ignore
##idate
##nice
##phine
##poration
##sery
##tans
##tea
##visions
258
cooler
informally
palaces
scarce
##HT
##cole
##kia
##lted
##ndas
Liquid
Zee
masked
spies
##oir
##tuated
257
Alfa
Archdeacon
Modena
Rogue
Smash
Statute
abducted
classmate
galaxies
##gand
##hymes
##rif
283
Au
Duran
Easton
Included
Jewel
Scream
lottery
pray
##rophe
259
Bala
Olympian
Peer
ka
registry
##lsey
51st
Amar
Cello
Det
Journalist
Nehru
Wharf
endowed
launchers
##aton
##ends
##immer
1622
Bai
Ep
Hopper
Relationship
Steps
Vinyl
Ying
elders
sniper
southward
##rly
395
Deadly
Piece
Trojans
donate
gram
lucrative
##dier
##heit
##igar
##urgh
Barn
Colored
Hum
Mei
PFC
Tavern
greeted
##SW
##chner
##rka
##sance
##turn
##viation
##vius
1695
Claremont
Emerald
Pie
Samoan
Thief
insurgency
ma
##graving
##tique
##wil
##wire
Eredivisie
Helicopter
Nguyễn
airfields
glands
relaxed
shafts
##aer
##biotics
##erapy
##roduced
##west
Catch
Jess
Norma
dragons
strained
##7th
##GF
##chens
Lemon
Lennox
Novak
Peña
Tchaikovsky
Venue
coma
insights
reservations
toes
toilets
withstand
##čić
##lur
1721
Ellie
Heidi
LB
spear
##bular
##ceiving
##rote
307
Blazers
Internacional
Kali
Shapiro
bidding
spire
transmissions
##bag
##culating
##ikon
##wheel
##х
263
41st
Gideon
Ingrid
Messiah
Myth
Purchase
depended
impending
##GR
##LF
##agar
##bh
##eno
##itate
355
Egyptians
Rizal
graders
migrate
sedan
##bley
##fford
##icon
ER
Really
Sebastián
Signals
convection
fibre
hourly
intercept
lineman
parachute
reacted
vineyards
##Es
##kopf
##kota
##uters
1698
Selangor
Structural
curtain
gothic
invariant
##itic
##ndering
##thes
Buses
Hebei
Saharan
rewards
##bellum
Hunger
Wooden
geographically
##asy
##lach
##rb
##ylon
640
75th
Huffington
Maguire
Planck
Pontiac
creditors
injected
##IG
##angelo
##boxing
##cken
##neo
##tination
1716
Asturias
Estrada
Glendale
Hearst
Manifesto
Swords
fronts
li
outs
sheer
##camp
##erries
##pox
##rax
1667
323
marketplace
##ntary
##personal
##queduct
##toriography
##undering
##urges
1658
Fairchild
Frankenstein
Goldwyn
Grady
Lister
ar
aspiring
manufactures
rainy
revolutionaries
sloop
##øy
1605
Campos
Fell
LG
balcony
clue
danced
espionage
expressway
midfield
slab
yeast
##UE
##aen
##dira
##gnon
##itives
##rys
##sheet
##vík
##welling
271
Lounge
McGuire
Moe
localized
technician
unlawful
##ership
##kshi
##lover
##uing
1624
Chevalier
breasted
countless
injunction
premature
rainbow
wakes
##aea
##bike
##jean
##ograd
##rity
##through
##trata
267
MN
Premio
Requiem
Sigismund
dad
dictator
implying
spectroscopy
truce
vulnerability
##chschule
##connected
##dized
##heist
##mil
##teacher
Cambrian
Ding
Khalifa
OCLC
Regan
banning
connector
marshal
recipes
relevance
willingness
##ferred
##orium
##pile
##vira
Boogie
CIS
IATA
Jai
Lucien
Salamanca
Scotch
Thistle
adjustment
centralized
chasing
forcibly
sounded
steamed
treasury
voyages
##icio
##minded
##ograph
##tak
##zyn
282
Ives
Raúl
Wear
decent
optics
##bella
##ega
##schrift
##scu
##teral
##tius
CMLL
Dade
Henrietta
Lori
Manson
Ridley
Sevens
Verse
Walnut
Weapon
anticipation
befriended
martyr
redundant
scratch
##lification
1728
269
Dane
Nietzsche
Raceway
biologists
garbage
hampered
##Pad
##mence
##minds
##scrapers
##swell
##tong
##yotes
Connacht
Wilfred
monsoon
pharmacy
stud
##dun
##player
Autobiography
Exodus
Flute
Fontaine
Primeira
archaic
trainers
##FK
##meh
##pard
##richt
##rii
##roller
Gottfried
Nantes
abandonment
digging
precedence
reformer
##alone
##æ
Hines
Osborn
cows
##corers
##omus
##organic
##uations
Clown
Flotilla
Knicks
Napoli
Ne
Novo
Stacey
UFO
muscular
outgoing
passports
##CB
##aks
##gth
##olly
##tice
##udding
345
Barangay
Bridgeport
Computational
Decree
Erskine
Neighborhoods
Wynn
ZIP
administer
broadband
regeneration
substrates
##fficiency
##holic
277
Coptic
branched
criterion
outspoken
##ifer
##risto
##vain
##wley
##wska
Ang
Darius
Eds
Gathering
Maha
Malabar
Meath
Milo
Pitchfork
Statement
Transmission
baroque
bicycles
cyclones
designations
dong
replies
##ege
##hake
##naut
##ogel
##sichord
Apostles
Cure
Inlet
Pluto
Term
Valentin
keel
lively
topographic
##cor
##dern
AND
Jimmie
Judgment
RSSSF
Raion
fringe
scenery
symphonic
testify
##hri
##lare
##lei
##̌ki
Hang
Jalisco
archival
characterization
euros
misleading
##IV
##bye
##etz
##ffed
##nais
##omer
##omys
##quencing
##unter
Bound
Hungarians
IOC
Pound
Tragedy
convoys
deportation
fits
##bba
##bec
##duced
##rabs
##sell
##stry
alleging
cherry
cornerback
tv
##buster
##nees
##organisation
Size
downhill
dresses
eclectic
##bau
##emann
##ervation
##owska
##м
Corners
Fang
Forge
Fulbright
Homo
Pagan
Upton
arranging
bearer
commencement
fencer
initials
peculiar
spirituality
twisted
##bull
##chase
##guide
##iability
##lvio
##tsky
291
610
Constantin
Def
Greyhound
Manly
Menon
Whip
satisfying
spill
systemic
##mable
##shes
296
ISS
Marxism
Monitoring
Portage
evicted
fairs
stiff
transformations
##4th
##cinated
##dara
##duk
##oration
##ponent
##́t
Jaya
Sargent
Solidarity
javelin
narratives
reputed
slain
##acious
##hrew
##uristic
##werk
Curtiss
Karim
Orléans
Positive
début
edible
hospitality
petty
##clination
##ild
##iral
##phane
##rgen
##utnant
Isis
Regis
anchors
bodied
compares
exclude
vascular
##fielder
##hynchus
##ngers
##rrosion
##rval
590
Competitors
Literacy
Mathews
Mention
Socialism
activate
constituents
middleweight
pod
##bred
##inator
##lemma
##muth
44th
Barron
Farewell
Havre
Lulu
Merton
Navajo
Paisley
denies
introductions
modular
spheres
tendencies
##cana
##cropolis
##gain
Armando
Emory
Guantanamo
Markham
Toys
encyclopedia
strand
transitions
tribunal
waist
##iced
##lico
##mulating
##reda
##sma
##topian
512
Annette
Ecclesiastical
Koreans
Zulu
endured
launcher
persisted
stables
##cic
##hō
##nning
##oop
##trar
##uant
##wson
1703
2500
BJP
Buddhists
EastEnders
Neck
Sikhs
avenue
removes
##cturnal
##ductive
##ener
##people
Aidan
Elk
bellied
farmhouse
labs
maize
shaping
slipped
speedway
summarized
uneven
unspecified
##antes
##claiming
##curity
##dians
##icum
##rriers
##tray
1632
Dinosaur
Eyre
Fusiliers
Hatfield
Köln
Registered
Titular
sabotage
shortages
striped
##Ts
##gly
##silon
##́nica
Álvarez
Bicycle
Fayette
H2O
O2
Raid
Smyth
aquarium
hybrids
##ceptor
##haled
##iful
##sense
##series
1560
Airlift
Gamble
Laval
YMCA
acquaintance
##hibition
##lois
##rting
Ancestry
Bethel
Bike
Dumbarton
Foundations
GNU
PRC
Soo
laugh
modelled
mourning
sire
##gest
##lib
##ña
##̀le
1635
Alongside
Katharine
McCall
Mina
Performances
Puebla
RBIs
constructions
correlated
downloadable
##gator
##orse
##reus
##ughter
Corsica
Elsewhere
Galician
Geo
Pressure
Reprinted
Wessex
Wicked
admiration
bacterium
lobe
##führer
##mium
##ogs
##venting
Fascist
McKenna
Trondheim
interrogation
overly
serviced
##cede
##electric
##esar
##fortunate
##mei
##rve
##tives
##ymph
Betsy
Sven
Yeovil
octagonal
turmoil
##AI
##besity
##cuse
##gui
##ially
##lved
##ocating
1731
Frozen
Walsall
asleep
denying
organising
procurement
prohibit
##amara
##arist
##iators
##itte
##ivars
##maine
##mized
##onzo
##oride
##raiser
##rios
1681
Karlsruhe
Whatever
aspirations
authenticity
coherent
remembers
wit
##generation
Mandir
Pleasure
Rohan
Shen
Unable
bankers
distributors
##alog
##etto
##igata
##inology
##reau
##theater
##̧on
Critic
Fijian
Horne
Leah
Locations
Lynne
Manufacturers
broker
cinemas
discount
nuts
proposition
revoked
##resh
##roats
##tow
##wee
403
Aryan
Beatty
Courses
Denton
IRS
Nagasaki
RPG
exceeds
salesman
takeoff
volatile
##activity
##baldi
##pec
##phobia
1664
Cowan
Neighbourhoods
Stanisław
Zack
analyzing
knots
proprietor
##ART
##lify
##rgy
##rimate
##rticultural
##ström
Pizza
Rochelle
Seed
follower
interacting
segregated
##ACP
##cceptable
##ckles
##lemens
##oah
##uire
##usic
##wim
Galleries
Greensboro
Hooper
Prisoner
Winslow
département
##ears
##fight
##lvia
##million
##nated
##oodoo
##titis
##volving
##zure
560
Darts
GE
Pollock
Rouen
Visa
pollen
##Hz
##eloped
##icorn
##rby
##riz
Braga
Holder
Magnetic
Moselle
ambushed
scandals
##bolt
##buro
##eor
##iculous
##kayama
##kken
##ntes
##sibly
##ᅵ
630
Bed
Custer
Genie
Kawasaki
Kharkiv
Kingsley
carpenter
credentials
intervened
morphological
##400
##cón
##enom
##tants
##volution
##wolves
##zhny
1712
338
Anchor
Haunted
Natalia
Reuben
Superliga
Xyleborus
hats
lobes
overseen
##DD
##Link
##dilla
##kor
##mell
##ropic
##titles
##̀ng
CSKA
Caleb
Healy
encryption
invertebrates
precinct
##ération
##function
##holz
##mnibus
##rovisation
##tancy
##vens
##worked
Britannica
Essendon
Hilbert
Identification
Pharrell
SL
Saddam
kicker
owls
sparse
##ounce
##rassing
279
Economist
Freshman
Harmon
Kathmandu
Moravian
Regiments
axe
betting
boring
festivities
##iform
292
317
Cutler
Isfahan
Toward
asteroids
##ather
##enna
##mada
##mmoth
##truction
##uriosity
1726
Daryl
Piazza
Wee
aisle
circulating
conical
dynasties
etymology
excitement
frescoes
imagined
lifts
##hift
##jad
##loo
##mai
##rocodile
##roner
Dolphin
Gorge
Grades
Knowles
Maui
Older
assaults
botanists
classifications
exhibiting
policemen
swift
##cycle
##linity
##otion
##shū
1634
1A
Athenian
Dimension
Lectures
PK
Salman
eagles
hazards
integers
mergers
recycled
solvent
subunit
thereof
##epe
##kler
##loud
##tructing
##uder
Regulatory
Superstar
contrasting
outward
Amin
Brno
Fremont
Pollard
Visitor
Wi
amidst
stainless
tensor
vampires
##ckless
##lants
##onymous
##peak
##pings
Earnhardt
Loeb
Lynx
Mallorca
Mildred
WCW
fashionable
mixes
stereotypes
##cietal
##corer
##eem
##iliated
##kit
##sden
##ucker
##wys
1665
328
Already
Clapton
Hz
Pilots
VIP
straw
##GO
##actions
##ician
##nale
##ppen
##rrigan
##void
1647
alphabetical
bounds
celestial
contempt
rumours
simulated
wherever
##amps
##ause
##ausen
##orate
##quer
##raise
##straße
##uai
App
Greenberg
Turtles
nomadic
shotgun
##acies
##dberg
##ldon
##rissa
BT
Charley
Guatemalan
Lucifer
Yoruba
entropy
sickness
##aland
##carbon
##pstead
##ritable
##tucket
Souza
academia
framing
woven
##dust
##eles
##gnorance
##tila
##wist
##̂ng
##р
289
Limburg
ethanol
finalized
fork
guarantees
misses
ventral
##cey
##ricks
##span
1646
Bassett
Doha
Granville
Manchu
Mori
Nowadays
Twain
filly
##aque
##vao
##̀nh
Boxer
Danzig
Demons
Procedure
Sekolah
Thorne
echo
falsely
knot
martyrs
replication
underworld
widowed
##dum
##ifiers
##oles
1623
1656
276
Bees
Gage
Gillian
chronology
gatherings
incentive
poured
##AV
##PF
##conventional
##genital
##gur
##hali
##nders
LD
Saigon
batters
cappella
commodities
dominating
herbs
medicines
oboe
streetcar
terminating
##igen
##lown
##mid
##types
##xial
Chick
Hydro
Mud
amplitude
flip
nad
rift
##DL
##ló
##pty
##runa
268
Honorable
Soyuz
authorization
beverages
depleted
philanthropists
positioning
procedural
##Vs
##buri
##finite
##gnesium
##isches
##oidea
##rient
##rvan
##yala
Hannibal
Mesopotamia
SMS
Sparrow
dan
doctrines
learnt
policing
repository
template
##hina
##ibus
##olite
##ooby
1673
Abigail
Cisco
Gonzales
LPGA
Mifflin
PP
Shoes
aristocracy
harvested
surf
##landa
##leg
##nden
##sists
##sla
##tistry
##utschland
##verick
##weet
Bellevue
Devonian
Joanne
Mani
Wendell
advise
costing
statehood
##eren
##naps
##nician
##nnis
##olt
##reach
##roads
##́g
Javanese
Josiah
McPherson
Occupational
coffin
decks
drone
fragile
legitimacy
mortars
##iculture
Molina
devotees
diocesan
guess
infancy
semiconductor
##chester
##itary
##lotype
##tisfaction
1652
570
Appleton
Cosmic
Elimination
Eocene
Introduced
Prem
Torpedo
cardinals
gangster
muzzle
vassal
##ternity
##tsi
1626
1692
314
Candidate
Hua
Ivanov
Quakers
Relay
Viet
Yeomanry
flees
pact
pickup
tactic
viewpoint
##PE
##blatt
##ccus
##ooted
##tari
##urity
Acquisition
Antilles
Chopin
blows
hectare
ne
pest
porcelain
retreating
salts
seater
##Master
##igraphy
##llard
##racy
##rut
##uno
580
Almeida
Boards
Burundi
Iain
Jail
Saving
Skip
drafting
feasible
gland
##hosh
##keptical
Daphne
Francesca
certifications
credibility
freeze
knees
refurbishment
tops
##chis
##çe
##feit
##niz
##owan
##pley
##rans
##sul
001
Ant
C1
Fitzpatrick
MP3
Moshe
Painter
Rostov
acquainted
novelty
##LR
##atlantic
##lihood
##orestation
Awakening
Dauphin
Meade
Umar
mustered
##games
##mantics
##overs
##owo
##spection
##valu
Musik
skate
strengths
##anian
##lburn
##mpus
##̈ller
Agents
Creole
Ste
commended
groundwater
superheroes
taller
telescopes
##dling
##due
##final
##inge
##oba
##ouncing
##sos
##trust
##́es
ET
Emery
Karate
Leuven
Prominent
affluent
angered
auditions
groundbreaking
hamlets
##acular
Bench
Boots
Manx
Montpellier
Nomination
accountant
chestnut
cores
swamps
##archy
##blast
##bund
##chiatric
##rbert
##surrection
##trators
##zzle
1633
Executed
Leonid
Petra
##yū
1651
1655
Means
canoeists
methane
remedy
##rois
##roving
##slaved
##̌ek
1697
Chengdu
Coke
UV
academies
eared
incarcerated
refinery
stimulation
worm
##lingen
##lme
##ntino
##sam
##women
Expert
Leopard
Quintet
SAT
Statue
assigns
safer
sails
secondly
synthesized
##abria
##cism
##dial
##gr
##tale
##verley
Funeral
McMillan
Middleweight
Selsoviet
baptism
implements
peptide
supervising
##itions
46th
70th
Vine
mammal
parasites
successively
##rmouth
catchment
hobby
oceans
##1st
##NF
##achen
##illy
##sible
##uds
##̧ão
Brody
Ellison
Evolutionary
Ja
Lesotho
Neue
coinage
cutter
ochreous
tolerant
##entes
##mran
299
Anchorage
Demo
Kimberley
Yesterday
evenly
synchronized
una
##horns
##kot
##sett
##stances
##suming
Alameda
Essen
Feet
Instagram
Twelfth
advisors
##RN
##mentary
##onde
##rcenary
284
385
Scully
Visions
Weightlifting
mounds
spared
##ecki
##nco
##racey
Detailed
Leyte
Middletown
Tanya
battling
commemoration
topping
##casts
##fonso
##heus
##nged
##otherapy
##otope
##partisan
##rring
##̂̀n
Chaplain
Peoria
SB
Supervisor
cinematic
elbow
insistence
installing
reversal
si
##chment
##emma
##herit
##lious
##luded
##ought
##trance
1639
Ask
Magnolia
Returns
accolades
ap
arbitration
protesting
raiding
##aze
##lippo
##llins
##rnary
##tigation
##ubs
##urier
Erica
Except
Limits
Martyn
Tatar
communion
implementations
meadows
##UD
##blished
##ditional
##hiti
##kki
##lwyn
##ntine
##ound
##ppi
##rapist
##rinding
##yric
1616
1627
1699
Avalanche
Rudd
SW
Wainwright
banana
regulator
##dat
##hly
##lery
##lins
Nils
concurrency
unfortunately
##cribing
##idi
##mines
##rampton
##ranco
##utation
1604
Collaboration
Lambda
Nouvelle
Pilgrim
poses
##ardier
##hibits
324
Cosmos
Gregorian
Karel
Nicholls
engages
proposing
quarterbacks
##letter
1636
Attorneys
Cossacks
Interchange
Oleg
Panorama
Pegasus
Turning
barge
discus
fortification
judging
organise
recounted
##cteria
##occupied
##paration
##stige
##street
##zh
Buena
Christensen
Drury
Duluth
Newell
Nguyen
Thierry
Turnbull
confirms
forerunner
manipulated
weddings
widened
##ckham
##elier
##erpillar
##rican
##rrows
##zee
Esporte
Fokker
Owl
Salazar
Welterweight
Yoon
fictitious
happily
heal
laude
murdering
ordinance
resurrected
##gl
##nabe
##rater
##ults
Wilbur
props
##ect
##mot
##ssack
##svenskan
##uminous
Kraft
Senegalese
ninety
posing
worry
##noid
##rawling
##tico
##trom
Azores
Subfamily
Usage
fluids
pathogens
##coat
##icola
##saan
Aldershot
Laird
Propaganda
dormitory
exaggerated
fatally
incurred
leukemia
preferring
serials
##Bs
##rris
##scot
Aix
Investments
Subdivision
Tributaries
Wellesley
aviator
##Ds
##amora
##gres
##rdar
274
293
Aquitaine
Manipur
Prosecutor
Siegel
Tar
Trafford
UT
Wheels
antibodies
ceasefire
flycatcher
illustrators
inlet
leap
##het
##hook
##itro
##nzo
##racker
##rawley
##rber
##rooked
##sle
##trusion
##uler
##utsch
##wani
##́ñez
##̦ia
Maybe
appliances
disposed
evacuate
##BM
##bilize
##stre
Archduke
Elektra
MRI
Mendes
Rhino
Tail
captives
intentional
layered
redesign
##ION
##iveness
##ková
##sq
##uration
Ayr
Dwyer
Interpretation
Ministries
Opportunity
cabins
contrasts
distinctions
nl
outlook
sevens
skole
symmetrical
##TU
##ssey
##tape
747
Alf
Dept
Hirsch
Madeira
Medicare
Somebody
Tijuana
awkward
colloquially
exposition
hasn
skeletal
vibrant
##demie
##etano
##hopper
##lden
##nished
##ynth
406
Dakar
MTA
betrayal
beverage
formidable
heel
revisions
salon
squirrel
stalled
thematic
##gaining
##regard
##zable
##̈tz
1694
326
Ab
Banco
Claims
Disability
Gifford
Johansson
Mahmoud
Theta
Thin
Ti
eroded
homogeneous
storytelling
truss
##PG
##koff
##rchester
##taking
##waite
660
Brill
Cy
Regents
nomenclature
sentencing
##bral
##dana
##roper
##smetics
##ttered
##urse
##vigable
Jackets
Ugly
Waves
hilly
tug
withdrawing
##TD
##lars
##lasm
##pals
##petus
##sposition
##ulle
57th
Females
HarperCollins
Lazarus
Stud
essayists
gum
headlined
listened
miner
vertebrae
##iker
##minism
##owicz
##para
##reet
##tyn
43rd
Aegean
Burgos
Consulting
Perspective
Rockford
U23
archbishops
arenas
hospitalized
incredibly
rushes
uncomfortable
##chfield
##idas
##ificance
##inating
##tano
Boot
Clements
Conspiracy
Kochi
Vaughn
guarding
illustrates
olds
predator
socialists
##EB
##dule
##secration
1580
KK
amplifier
orphanage
poisoned
sermon
##aison
##efe
##eron
##ffected
##pert
##̈ck
Atom
Cameroonian
Clermont
Controversies
Dorian
Dunne
Ferris
Lessons
Listen
Lucha
Mayfield
Usher
Vittorio
Wiesbaden
astronauts
integrating
pairing
shower
uninhabited
##bata
##char
##kent
##oco
##orus
##zeera
Dustin
Precinct
dormant
messenger
##fowl
##lowing
##mussen
Blackhawks
IB
Marko
Meaning
Monarchs
Mukherjee
Spirits
attacker
crushing
influenza
pardon
unmanned
##GN
##HO
##amen
##batic
##inho
##wanted
##́ska
Burnham
Chongqing
Ginger
Ignatius
competence
footsteps
mortal
motions
proponents
##Intosh
##dictment
##pulsive
##usen
##̀que
Evergreen
Mastering
centenary
feeder
informing
kickoff
monograph
##UB
##communication
##ctionaries
##densed
##lve
##rba
##rrific
##thical
##toma
Accounts
Centenary
Indochina
Sandwich
dunes
scanning
##bankment
[...]
